[PAD]
[UNK]
[START]
[END]
<2en>
<2ru>
<2uk>
!
"
#
$
%
'
(
)
*
+
,
-
.
/
0
1
2
3
4
5
6
7
8
9
:
;
=
?
@
[
\
]
^
_
`
a
b
c
d
e
f
g
h
i
j
k
l
m
n
o
p
q
r
s
t
u
v
w
x
y
z
{
}
~
¡
£
¤
¦
§
©
¬
®
°
±
¶
·
¿
ð
ø
þ
ı
ƒ
α
ζ
η
ι
μ
ν
ο
τ
υ
ω
а
б
в
г
д
е
ж
з
и
к
л
м
н
о
п
р
с
т
у
ф
х
ц
ч
ш
щ
ъ
ы
ь
э
ю
я
є
ѕ
і
ј
ћ
џ
ѻ
ґ
‐
–
—
‰
€
∆
√
≈
─
╨
╪
♪
♫
抣
醲
you
the
не
to
it
что
that
and
of
на
ты
що
это
what
we
in
is
me
так
ти
це
this
he
##s
for
my
have
on
your
no
re
все
do
not
was
know
don
be
are
##и
can
with
but
он
all
##а
то
за
just
мы
here
тебе
so
they
there
как
мне
да
ll
get
she
нет
like
##е
вы
меня
но
ми
right
він
go
about
if
out
##ся
як
ви
up
him
до
at
now
one
how
мене
well
##у
her
просто
come
тебя
##м
его
yeah
она
ve
мені
oh
got
ні
але
want
для
think
знаю
ну
нас
good
will
did
see
бы
тут
##і
вас
если
##ing
по
as
why
who
let
his
from
иого
##ed
##ом
yes
##т
when
an
там
okay
time
про
из
back
gonna
us
going
они
them
been
where
же
look
вони
were
would
##ю
нам
вам
ее
take
чтобы
вона
есть
tell
then
хорошо
our
хочу
or
man
тобі
need
##о
когда
еще
could
didn
say
some
##y
кто
якщо
had
hey
был
##ы
здесь
##х
##d
too
down
something
really
way
может
##сь
##я
от
только
##те
##e
by
щоб
та
##ть
ще
было
коли
never
more
добре
has
make
off
##н
думаю
##в
because
over
sorry
быть
даваи
##a
мои
вот
##ми
чем
little
mean
very
##ки
будет
##ка
##л
##ли
should
said
вже
only
##er
уже
##на
##с
було
give
people
могу
thank
two
нужно
am
any
doing
please
почему
іі
того
був
ладно
дуже
##к
може
где
sure
чи
##ти
очень
или
один
thing
буде
##ів
##t
хто
их
спасибо
раз
help
сеичас
love
##ов
чому
де
##o
моя
still
ничего
тому
even
mr
##ь
этого
від
##ла
гаразд
была
find
треба
these
іх
much
##р
before
##i
anything
знаешь
maybe
into
sir
nothing
через
first
work
##ly
##ку
##r
god
again
talk
day
stop
thought
wait
правда
##ш
other
этом
life
бути
uh
night
call
потому
away
home
тільки
щось
те
##го
будь
must
put
цього
long
без
теперь
ось
себе
ему
##n
со
ever
their
##но
than
always
everything
боже
last
нічого
after
great
##нии
new
этот
день
##ні
won
told
keep
время
можу
зараз
things
those
привет
тепер
должен
больше
better
guy
всі
сказал
міи
пока
ним
years
знаєш
еи
люди
leave
буду
дякую
doesn
хочешь
надо
эи
них
old
нибудь
name
тоже
об
твоя
себя
твои
свою
даже
around
можна
does
place
бо
була
##д
guys
kill
никогда
ли
bad
hear
nice
thanks
##не
enough
тоді
##мо
час
порядке
тогда
believe
конечно
every
fine
three
made
father
isn
coming
wanted
нього
big
hello
kind
left
might
##му
##ну
done
money
someone
більше
лише
людеи
пожалуиста
happened
ни
##сть
два
можешь
него
feel
мнои
тобои
wrong
##ни
dead
были
lot
##ии
##ться
may
сказать
understand
иому
being
##al
through
кого
##es
house
stay
лучше
mother
girl
##on
another
немає
хочеш
##є
значит
ніколи
сказала
иди
сюда
course
цеи
##in
shit
точно
hell
##l
else
або
зі
listen
хотел
came
сделать
fuck
всегда
##ныи
##з
which
життя
навіть
dad
чого
##ет
дело
мама
три
ім
talking
trying
сказав
went
должны
назад
##ок
getting
сегодня
care
remember
би
try
теж
чего
якии
сам
car
world
hi
saw
тобою
boy
next
ага
том
looking
##ем
ask
wasn
##h
були
можно
##ои
##ра
woman
багато
делать
люблю
можете
found
привіт
family
mind
ok
same
son
сюди
own
##та
завжди
friend
скажи
real
show
думаешь
ласка
із
ago
прошу
fucking
job
best
10
guess
room
неи
друг
baby
morning
этим
wanna
вами
ваш
##ці
miss
таке
move
наш
перед
всего
после
свои
alone
mom
together
pretty
seen
возможно
heard
huh
має
тои
##п
потрібно
##ie
##б
##ная
today
##k
##an
##лі
сьогодні
жизнь
краще
ready
took
yourself
во
##ны
одна
hold
должна
many
ваша
since
моеи
які
##ить
days
wouldn
черт
##шь
зробити
потом
прямо
##ло
##ать
даваите
мог
случилось
already
matter
while
without
мною
нее
##ко
##нои
whole
даи
маю
мистер
немного
такое
ці
##g
им
most
##le
until
##ке
##чи
##ал
meet
use
такои
##ою
bring
called
gotta
men
много
можеш
few
##им
##г
idea
knew
хотів
##en
##он
нами
happy
haven
эти
gone
років
killed
завтра
твіи
##p
actually
used
yet
ніж
##ные
20
everyone
лет
##ль
wants
live
ведь
##ным
start
кое
під
слишком
куда
доктор
саме
трохи
этои
##ного
once
wife
мою
both
знову
одного
##m
open
говорить
##али
сказати
##ати
##сти
end
прости
собі
##ers
какои
которыи
зачем
case
die
myself
##них
tonight
всех
пане
##ня
business
твою
вообще
под
head
saying
um
отец
##ных
couldn
могли
school
##аи
##вати
кажется
геи
можем
никто
робити
сэр
##ри
000
hope
run
turn
знаете
сделал
##ди
##ду
death
door
soon
true
яка
##еи
##са
face
problem
вместе
сколько
friends
having
думал
bit
part
such
##ами
##ч
five
probably
watch
видел
дома
потім
##ер
excuse
знать
ніхто
помочь
##ник
kid
ця
year
пам
anyone
cause
gave
phone
сер
цю
##u
##ит
hurt
можливо
##ion
##us
crazy
minute
##ав
police
всем
домои
скільки
снова
##ен
##ним
господи
человек
##ва
ain
looks
дня
##да
##ком
моі
поэтому
цьому
late
story
парень
слушаи
##ting
afraid
each
person
место
наити
отлично
##man
##ешь
lost
над
понимаю
справді
тот
dr
play
##ити
30
damn
stuff
supposed
куди
разом
цим
##ту
делаешь
именно
нравится
##тся
heart
говорил
чудово
эту
knows
minutes
working
усе
хочет
exactly
hard
брат
весь
жаль
іи
##ж
tomorrow
бачив
поговорить
brother
звичаино
знаєте
похоже
ясно
##жу
chance
deal
hit
sit
которые
скоро
такии
doctor
drink
##ic
##рі
captain
happen
says
taking
всю
руки
хотела
часу
under
##ам
##ах
truth
жизни
нормально
##ті
behind
cut
everybody
later
дом
##ge
##аю
change
forget
means
rest
неі
поки
при
після
aren
high
kids
second
thinking
хіба
##ала
##ную
hours
inside
makes
простите
##га
shut
worry
скажу
хтось
trust
making
будем
времени
должно
могла
##ше
far
##ment
also
anyway
check
hands
стоит
##te
beautiful
hand
water
эта
##or
##ил
word
деньги
правильно
##ите
##ле
##ого
##ру
гроші
знает
пару
##ила
##то
blood
four
half
вперед
міг
лишь
таким
##th
##ия
bye
будешь
воно
деиствительно
звідси
зробив
##или
close
daughter
pay
point
деле
мого
можемо
разве
##ies
##чки
##ють
different
вибачте
сама
least
думала
##сті
town
місце
твоеи
12
body
easy
mrs
nobody
повинні
уверен
чоловік
##вали
asked
mine
read
speak
надеюсь
##able
eat
lady
##ia
50
number
waiting
навіщо
серьезно
якби
##ан
##ає
##кои
full
gets
whatever
маєш
моє
несколько
номер
робиш
своеи
убить
##ме
##чу
somebody
всіх
досить
моего
одну
##вав
##ство
fight
line
send
wish
young
ними
тем
##ine
00
машину
повинен
такого
##ді
##ую
eyes
husband
отсюда
происходит
туда
##ry
##x
##кою
##ят
game
shall
друга
одно
понимаешь
сталося
##c
##is
##их
##ння
##ц
15
its
moment
save
stand
додому
знала
хлопці
##ное
against
telling
times
week
кому
нужен
ои
папа
проблема
##ation
##чка
ah
city
side
думав
наша
нужна
своі
##лся
##лю
comes
married
power
reason
sleep
небудь
ради
сильно
quite
six
tried
хоче
answer
anymore
fire
met
promise
вибач
каждыи
мабуть
отже
тим
##іі
break
months
safe
set
welcome
говорю
знал
##ty
shot
верно
давно
##увати
either
sent
shoot
walk
ваше
ко
людина
могут
подобається
слова
совсем
##ша
question
сказали
##ф
almost
hot
sister
yours
знаити
кілька
нема
оно
права
розумію
этих
##ity
##тесь
alive
important
послушаи
яку
##um
##ля
##си
party
звісно
ох
хочете
##re
##ая
##вать
##ния
##ню
##ре
couple
fun
jack
lose
needs
started
мое
туди
##el
##ив
##ые
clear
gun
итак
понял
пошли
самом
ту
##b
##чку
##ши
able
goes
light
pick
war
джон
мати
мать
наших
равно
хоть
##ось
##ця
shouldn
women
знати
##0
##ate
##ві
buy
news
perhaps
sometimes
здається
знає
нею
пора
посмотри
против
така
##ted
anybody
order
діисно
наверное
работу
##ble
##ціі
##шка
between
children
team
trouble
детеи
зовут
казав
слово
тех
чорт
##st
bed
girls
running
будут
зовсім
насчет
нельзя
откуда
свого
усі
##ling
##ние
john
более
придется
раньше
шкода
##ra
##би
##ном
бог
дела
допомогти
план
слухаи
увазі
##вання
ahead
em
plan
видеть
знав
оу
разу
хватит
##ce
##ive
##se
##z
##нь
##сон
##чі
brought
hour
батько
гадаю
дещо
идти
кем
хотите
##et
##f
##ять
ass
black
dinner
front
luck
виду
думаєш
речі
ходімо
##ter
cannot
child
funny
though
бачиш
наші
пор
потрібна
твое
##ke
##ton
##ія
daddy
dear
fact
free
honey
office
минут
ребята
смотри
тож
чувак
##лась
##лись
##ыи
bitch
book
died
outside
##nt
##ор
##ст
##ства
##чить
control
stupid
ten
взагалі
голову
сын
##ма
cool
hate
king
sounds
возьми
человека
feeling
food
говорит
далі
також
уж
чим
шанс
этому
##it
##ts
##ба
##ции
##єш
secret
sick
мав
нашел
пришел
##less
##ик
boys
lord
будто
подожди
справи
тих
##ch
##ist
##rs
##же
##ро
100
bet
company
lives
music
звідки
ити
кажу
какая
сделала
ті
##est
##кии
##ків
##ові
##че
dog
jesus
scared
быстро
мало
розумієш
справа
сім
убил
##ck
##ает
##вала
ship
бачу
говорила
двері
извини
какого
піти
##il
видишь
питання
цих
##ian
##шии
boss
country
happens
living
white
wow
будемо
зв
почти
схоже
такая
твоі
хотя
швидше
##5
##ful
##лу
##чно
agent
red
serious
довго
достаточно
имя
маиже
якого
##2
##гу
##де
mm
taken
відбувається
поидем
пішли
руку
##ve
##ію
drive
law
past
playing
report
seem
отца
проти
пішов
хорошии
честь
ять
##ие
##ым
40
hurry
seems
доброго
знаем
либо
потрібен
раніше
рядом
случае
смерть
##w
##ніи
##ция
explain
lie
sense
touch
вижу
дітеи
жінка
имею
між
нб
порядку
рада
своего
собои
чарлі
яке
##ping
##жи
##ин
##иться
glad
himself
less
вернуться
другои
мисс
поиду
работа
ребенок
##7
president
аби
варто
далеко
плохо
правду
ребенка
свіи
слышал
смерти
такі
##1
##ась
##бу
##ися
##ца
along
changed
hang
pull
алло
будете
будуть
біля
джо
досі
жить
какое
машина
между
прав
рад
роботу
собираюсь
хоч
##па
##ча
choice
cold
known
perfect
step
будеш
десь
месте
пані
поговорити
помощь
самое
смогу
##вся
##ина
earth
hmm
longer
worked
жена
здорово
мамо
момент
насправді
ночь
первыи
хотіла
##na
##ring
##вии
coffee
figure
piece
weren
две
делает
землю
можуть
узнать
human
small
говоришь
нашеи
никаких
нью
побачити
произошло
хлопець
##ники
##нка
##су
asking
calling
leaving
weeks
ах
важно
вроде
знали
извините
нашу
ночи
піду
світ
тобто
##ишь
##лися
become
date
eye
fast
follow
giving
special
вопрос
говори
года
джек
идет
нехаи
##ance
##tion
##зи
##ному
##ха
meeting
sort
top
win
ваши
вашу
готов
зрозумів
наши
приишов
свое
своє
##ar
##ию
##ют
hair
whoa
write
наше
прекрасно
##8
##за
##ками
##кс
loved
security
sex
state
takes
вчера
которая
мир
поити
работает
телефон
##аите
##дить
##скии
##ста
##чок
##ых
air
ma
parents
picture
sign
sound
sweet
ваші
иду
колись
нашли
ноги
оба
проблем
син
сначала
##son
##ць
##ція
eight
protect
готова
иногда
король
людям
нужны
послухаи
потрібні
пусть
сестра
тато
##4
##6
##ent
##ne
##ous
##ана
##ви
##шку
##ься
catch
general
hospital
murder
poor
yesterday
дать
кби
которую
моєі
напевно
уверена
##ue
##ur
##ву
##ги
##нуть
##ры
##шки
clean
dream
evening
none
return
uncle
weird
бачити
вся
даите
друзья
круто
однажды
стал
##ley
##ure
##дь
##ись
##она
##ськии
##теся
##шу
##э
calm
dance
drop
finally
somewhere
курва
нем
проблемы
своих
увидеть
уити
часть
##de
##цы
##чнии
##шся
##шься
##ще
felt
finish
lucky
possible
questions
quiet
road
seeing
street
біса
ваших
добрии
жити
идем
легко
мило
моим
однои
сердце
хвилин
швидко
##9
##io
##red
##ими
##тися
##уи
11
million
system
worth
всього
говорили
готовии
дальше
другом
занадто
ніби
работы
такие
хаи
##аєш
##бі
##вал
##ется
##ится
##се
##іи
except
hotel
ladies
master
ones
quick
surprise
wonderful
дам
девушка
скорее
чув
ідея
##ant
##ard
##ел
##ница
##чна
absolutely
broke
class
fault
kept
moving
watching
вещи
говорят
грошеи
долго
ка
какие
кровь
маєте
мушу
нe
пять
ранку
стать
##id
##per
##во
##неи
##чныи
##шим
##ших
beat
buddy
building
busy
feet
key
talked
unless
worse
батька
великии
геть
ночью
одним
отче
робить
тату
##cя
##ness
##ual
##v
##ика
##ється
bag
caught
cover
gentlemen
gold
joe
looked
lovely
missing
seven
till
words
будинок
говорите
доведеться
думаете
означає
проблеми
сделаю
твоего
твоє
цієі
часов
##3
##la
##tic
##лер
##ски
christmas
decided
given
ha
learn
officer
others
saved
turned
voice
wake
wonder
вашеи
вбити
никого
рассказать
сможешь
стати
стіи
чоловіка
яким
##ated
##dy
##ka
##ut
##бы
##до
##ете
##зі
##нг
##нки
##цию
##ші
act
attack
certainly
dude
interesting
near
rather
алан
вернулся
вечером
видела
моих
моєму
одне
перестань
подумал
помнишь
последнии
пытался
работать
робив
таких
умер
##ny
##ro
##ды
##нт
alright
court
lying
message
spend
абсолютно
бога
говорити
дві
дому
ким
кроме
мам
миссис
надто
насколько
негаино
поздно
право
спасибі
старии
іди
інакше
інші
##ish
##аешь
##ними
##нку
##ными
##це
chief
evidence
force
information
join
kidding
mike
movie
straight
swear
terrible
wedding
бачила
брата
взяти
видели
днеи
женщина
каже
парня
погано
полагаю
помню
понятно
слід
собою
таки
тихо
хоча
щоино
##age
##ged
##атися
##леи
##нее
##тель
##ью
##ємо
14
certain
cop
dangerous
idiot
meant
sam
situation
важко
забудь
значить
идея
маик
само
стільки
##ey
##ow
##tor
##ають
##ение
##лении
##ты
##ує
across
fair
michael
mistake
paper
бачили
большои
боюсь
дверь
діти
наконец
наче
парни
розумієте
самого
своіх
стало
утром
ха
чарли
##nce
##иш
##кі
##ною
##ність
##ося
##пи
##том
##щии
completely
happening
hasn
needed
stick
вашого
впевнении
двох
довольно
дорогая
еянби
заради
знаишов
милая
ніч
понять
роботи
своим
также
твого
утро
ух
цікаво
##ct
##land
##нс
##ое
##тку
##цем
##ін
colonel
land
missed
pain
peace
simple
wall
безопасности
більш
доки
знаишли
лаино
некоторые
обычно
пошел
решил
сара
світі
##by
##ве
##ек
##тки
##тів
##чь
##щ
25
birthday
born
difference
imagine
lead
partner
ran
strange
вина
гарна
глаза
голос
доме
интересно
кажуть
капитан
ключ
когось
которои
любит
маємо
моім
місці
прежде
пути
секунду
сериозно
смысле
странно
увидимся
яких
якому
іншого
##ee
##ma
##аться
##ков
##ман
##мен
##ность
##цю
##чная
17
boat
careful
charlie
david
fall
field
frank
letter
mad
orders
ride
thinks
worried
york
вб
год
дети
дівчина
кожен
нарешті
нашим
повернутися
приятно
смотреть
типа
ціи
часто
іноді
##ating
##ель
##ера
##жа
##жал
##лом
##оі
##чні
mary
relax
short
tired
взять
вон
візьми
звучит
зробили
маленькии
мужик
обо
обратно
пришлось
пытаюсь
рано
рік
сделали
серце
стала
чуть
##ps
##ание
##ают
##жении
##ках
##ноі
##нути
##сі
##ус
##ятся
13
accident
army
dark
george
honest
miles
prison
ring
seriously
sitting
strong
train
truck
using
works
город
десять
друзі
короля
моему
новии
новыи
ночі
остаться
работе
скажеш
следующии
хотят
##ении
##ець
##ики
##лять
##мося
##ував
##ців
##щим
##єте
cops
deep
early
finished
interested
killing
radio
throw
блядь
вашего
вдома
всім
дороги
дочь
знаємо
идемо
кофе
мала
містере
нікого
приишли
руках
самыи
семьи
спати
хм
##ary
##as
##pe
##ваю
##имо
##ому
##скои
##сте
##ток
american
blue
count
fighting
ground
lieutenant
offer
peter
sell
stopped
tom
велика
вітаю
дали
денег
дивно
звати
клянусь
крови
лицо
моем
містер
першии
погоди
понимаете
річ
способ
убииство
хотели
чувствую
школу
##am
##way
##ности
##рд
##яти
al
anywhere
box
expect
fear
forgive
future
major
rock
station
дерьмо
достатньо
другого
единственныи
иб
мають
нашого
подумав
получил
посмотрим
працювати
причина
пришли
семья
сих
смерті
сразу
усіх
чуєш
школе
ятаєш
##ally
##ial
##ina
##ns
##ало
##дать
##ення
##мся
##мы
##тон
arrest
bar
built
code
cute
entire
forgot
goddamn
hide
history
killer
kiss
list
pass
problems
victim
wear
боб
вниз
вчора
выглядит
двое
иначе
которого
кров
моіх
нашего
одному
поверить
подумала
приити
робота
року
спросить
став
тело
ужасно
фп
шоу
щo
##ger
##king
##nd
##out
##to
##ze
##аем
##ания
##ання
##ец
##лем
##лен
##ника
##рт
##ская
##тии
##фе
bought
especially
feels
fell
liked
marry
paid
personal
proud
smell
table
test
totally
trip
upset
wearing
ya
вернусь
дав
делаи
детектив
долларов
заткнись
зможу
знают
конец
которых
любовь
набагато
опять
отримав
працює
приятель
столько
черта
якось
іншии
##ається
##зу
##лл
##ского
##тер
##цію
##чем
##щие
16
accept
besides
bob
boyfriend
crime
doubt
during
enjoy
floor
holy
within
агов
больно
весело
видно
дал
затем
зачекаи
зможеш
муж
очевидно
пара
підемо
роки
секс
твоих
щодо
##at
##cy
##ir
##os
##ар
##жка
##ово
##чик
500
attention
bank
lived
nine
normal
ooh
queen
record
self
sergeant
visit
вірно
другие
землі
кстати
леди
люба
любить
маму
місто
новости
нікому
повинна
помогите
поняла
радии
своім
следует
слушаите
станет
стои
счет
сэм
хочуть
чесно
шлях
##un
##дки
##ена
##ения
##ешься
##тка
##чении
apartment
drunk
final
goodbye
group
handle
harry
jim
mouth
neither
public
space
speaking
spell
tv
буваи
гарно
джордж
днем
думать
забув
зрозуміло
иде
людьми
мере
милыи
около
очі
поглянь
покажи
самі
сможем
справу
чтоб
шесть
ятаю
інших
##ad
##led
##line
##ався
##аємо
##ини
##кого
##муть
##нo
##нет
##нув
##пу
##шить
afternoon
age
amazing
brain
broken
church
drugs
forever
french
instead
lt
lunch
middle
plane
quit
stuck
teach
tough
адже
будинку
грати
деякі
дні
доброе
зробила
зроблю
мужчина
місіс
понятия
пробач
прошлои
скажешь
сына
хорошая
хуже
чотири
##ious
##les
##ll
##ану
##бе
##ені
##есь
##еш
##ова
##тор
##цу
##чии
##щу
##ьно
##іть
agree
area
card
cat
contact
destroy
dress
dying
eating
fix
government
innocent
island
prove
share
smart
агент
бачите
вернуть
внутри
дивись
дитина
житті
здравствуите
кінець
лиш
обещаю
оце
пес
побачення
повідомлення
пол
пришла
решение
сина
смог
спасти
список
стоп
твоим
трудно
угодно
ума
якиись
##ber
##ot
##rt
##ta
##ела
##жен
##кати
##кую
##лось
##нд
##нно
##хи
##чнои
##юсь
##ір
art
bastard
blow
charge
christ
club
continue
figured
guard
leg
magic
paris
position
realize
respect
star
strike
twice
быстрее
вашим
вставаи
га
делаю
ден
детка
днів
добро
думает
забираи
забыл
любишь
минутку
нашла
невже
оружие
полиция
провести
проити
секунд
сможет
твоему
тримаи
ушел
чему
честно
##ky
##ld
##ors
##rd
##ею
##лы
##ром
##ские
##чим
##чити
##єю
beer
darling
english
escape
hiding
honor
ice
level
lied
park
professor
relationship
soul
sweetheart
вірю
гарнии
годі
голова
дати
дім
ждет
мальчик
обличчя
повернути
подождите
поехали
придет
приємно
своем
смотрите
совершенно
спокіино
спочатку
стороны
суд
теде
чекаи
##up
##ано
##аны
##ат
##вает
##жать
##илась
##ис
##ливо
##льно
##рка
##тись
##ху
##ща
##щих
60
angry
appreciate
ball
bill
calls
de
detective
difficult
girlfriend
hall
james
laughing
machine
mark
max
mission
mommy
north
passed
pleasure
present
putting
quickly
rules
seconds
single
store
sun
suppose
tree
городе
делал
живии
команда
которое
мадам
написано
осталось
пан
позже
получится
помер
постоянно
правии
путь
рацію
случаи
стоило
інше
##ding
##ds
##ped
##ving
##вести
##дку
##ее
##жі
##ило
##ину
##кая
##нi
##нныи
##сс
##тво
##тно
##ують
##чена
##чне
##чного
##ька
##ьныи
##ям
200
allowed
brothers
build
deserve
ex
fish
fool
foot
gift
grow
helped
hungry
medical
often
planet
private
sad
slow
walking
whose
window
worst
близько
взял
внимание
выглядишь
жив
зможе
зробимо
лучшии
машине
машини
мертвии
минуту
народ
получить
прощения
світу
слышала
сподіваюся
стали
хотіли
хочемо
##ction
##her
##house
##me
##ning
##аися
##ваи
##дно
##ень
##ження
##жку
##итесь
##люсь
##мі
##рии
##ровать
##сно
##стю
##чал
##чать
##эи
apart
asshole
blame
closed
clothes
forward
holding
impossible
likes
loves
low
mama
mate
mess
mum
silly
sing
sleeping
spent
track
weapon
вечір
взяли
видите
вода
двоє
других
ждать
живу
каким
комнате
места
народження
начала
нового
отримати
пистолет
покажу
рук
ужин
успокоися
істи
##co
##da
##ions
##ri
##ries
##sion
##дити
##ено
##лан
##ляться
##ником
##ницы
##нці
##пер
##рів
##сом
##сы
##ського
##ут
##чив
##ьнии
##яю
18
bridge
congratulations
double
fly
guns
kitchen
lawyer
marriage
smoke
spot
thousand
van
wrote
алекс
вогонь
даю
девочка
дружина
друзеи
думаєте
живе
забрали
забрать
зрозуміти
играть
книгу
кожного
королева
любом
маикл
мире
моіи
міс
никому
правила
прекрати
робите
рождения
спосіб
убили
четыре
чисто
##der
##han
##ings
##ip
##no
##ore
##вая
##еть
##ким
##ление
##лок
##ляє
##меш
##нок
##ніше
##ол
##от
##рить
##чные
##шеи
24
45
acting
action
alex
arm
bus
consider
grand
green
herself
listening
named
patient
push
sea
service
shop
surprised
usually
большое
води
го
говорив
доктора
друже
еду
зроби
имеет
имеешь
конце
міста
ого
океи
пап
парнем
побачив
поможет
принести
проверить
пізно
расскажи
сигнал
сложно
убиица
хорошие
часом
чувствуешь
єдинии
##ism
##ki
##men
##sa
##sh
##ались
##ании
##даю
##дет
##ких
##лася
##ления
##лів
##нить
##ниці
##ота
##ска
##ья
##эн
##эт
##яет
##€
apparently
bomb
bullshit
burn
cars
cash
crew
file
fit
fresh
gay
lights
obviously
ourselves
owe
responsible
sake
staying
tea
wind
аж
батьки
богу
вбив
вважаю
виглядає
внизу
вопросов
всеи
выбор
двух
держи
добрыи
другое
записи
заспокоися
здоров
краинеи
любви
любов
матір
меньше
місті
нашоі
нему
неправильно
обов
образом
остановить
перепрошую
полиции
президент
свет
стану
сто
страшно
твоем
трапилося
тяжело
услышать
фбр
хороша
хочется
чаи
часа
##bs
##cing
##ga
##ging
##ians
##ier
##ition
##ler
##lin
##ner
##nie
##бо
##дает
##дал
##дала
##дає
##дка
##жения
##зе
##ился
##итися
##ляю
##нул
##ора
##пе
##рити
##шення
##щего
##іння
##іс
according
angel
arms
began
checked
dare
decision
department
empty
feelings
gives
helping
investigation
letting
lots
notice
pack
paul
possibly
pregnant
price
risk
sunday
support
turns
босс
встретиться
доларів
земля
идіть
крім
мали
малыш
матери
менше
настолько
настільки
начать
неплохо
ок
оставить
ответ
перш
повернувся
поле
початку
працюю
предложение
підеш
рэи
спробувати
убииства
хлопця
##ff
##ible
##ite
##ks
##ok
##ватися
##гать
##днии
##дом
##емся
##ета
##ид
##лена
##лення
##лые
##нести
##нити
##ницю
##нні
##ності
##овии
##рку
##ров
##ском
##чения
##чила
##чили
##шли
##шую
##щі
##ывать
21
address
america
apologize
bear
beauty
chuckles
clock
cross
drug
emergency
film
flight
hero
horse
immediately
jump
memory
mention
month
pictures
press
promised
ray
rich
rid
steal
taste
верю
вииде
вопросы
впервые
гаррі
готовы
готові
дала
даруите
делаете
допоможіть
другим
забрати
змінити
иметь
искать
людини
матері
месяцев
могло
навколо
наидем
недели
ник
ніяких
позволить
последнее
посмотреть
пошла
прошло
сан
сержант
справжніи
такими
тысяч
узнал
факт
якраз
історія
##do
##ford
##ical
##ice
##ile
##op
##ron
##ss
##ub
##ался
##ане
##бои
##ваться
##дили
##дои
##дя
##ент
##жем
##жить
##зм
##ились
##кла
##мемо
##ницу
##ості
##пі
##ря
##ська
##тва
##хо
##чение
##юся
##яи
##ість
##іт
above
agreed
begin
breakfast
college
computer
danny
duty
eh
fat
following
fucked
heavy
la
learned
lock
ms
neck
raise
reach
roger
several
sheriff
smile
third
tony
безпеці
бен
врятувати
годин
дорогу
другу
звуть
идите
известно
код
кохання
машины
мертв
мужа
неделю
ньому
особенно
полностью
почекаи
прииде
принаимні
пір
разів
своими
сили
скажите
скажіть
смішно
спокоино
таку
твоєі
фото
фпх
чула
шість
існує
##ay
##field
##hip
##ins
##ities
##kin
##били
##бить
##ваешь
##вало
##вим
##вы
##ев
##жет
##жні
##ився
##кає
##кие
##лин
##ляет
##нем
##нів
##ового
##рали
##рон
##ряд
##стеи
##тельно
##тои
##чення
##чко
access
board
breathe
choose
commander
concerned
cousin
definitely
devil
favorite
heads
henry
moved
nuts
search
sending
sky
south
speed
starts
suit
super
sweetie
wine
вдруг
вид
вранці
выпить
говоря
гра
делают
джеи
дитину
другому
думку
зачекаите
знак
история
казала
любои
маибутнє
місяць
наиду
парнеи
повезло
показать
силу
собираешься
супер
сюрприз
твоіх
тиждень
увага
уехать
ханна
хлопчик
якісь
іде
ідемо
іхати
##ics
##ig
##mo
##om
##py
##ress
##бив
##ге
##ес
##иди
##имся
##ишься
##кер
##льного
##ости
##ськоі
##ття
##ура
##фа
##чеи
##чено
##чики
##чке
##шении
##шла
##ье
##ються
80
billy
command
cost
enemy
everywhere
faster
fired
focus
form
gas
grab
indeed
interest
jimmy
joke
judge
keeps
necessary
nervous
remain
sees
song
stole
upstairs
yep
бери
важливо
вечер
вечора
виити
вирішив
власне
вместо
вночі
говориш
году
господа
держать
дозвольте
дорогои
женщины
жодних
жодного
жінки
каком
компании
мертва
миллионов
намагався
нашому
невозможно
недавно
неимовірно
обережно
пов
подальше
подивися
подумаи
позвонить
получилось
рассказал
роби
роблять
сделаи
сила
смогла
сон
трьох
утра
фільм
эм
##old
##ters
##выи
##гo
##дати
##дна
##жение
##жити
##зь
##лива
##лли
##нє
##овои
##оне
##пить
##рик
##рки
##ских
##ску
##ум
##фи
##чит
##ючи
##іли
300
allow
asleep
bother
carry
cell
complete
cook
correct
crap
expecting
experience
german
gotten
grace
ho
kick
names
opportunity
ridiculous
seat
standing
wild
боляче
вернется
взяв
виходить
вокруг
волнуися
всему
всьому
выити
голове
дев
делаем
друзів
думали
жива
живет
жінок
залишити
збираюся
кімнаті
кінця
людину
мить
мм
місяці
находится
неужели
обязательно
оттуда
подарок
помоги
представить
работал
рот
сами
свидание
сделаем
серед
слухаите
сторону
стриваи
сука
умерла
учитывая
хлопче
хэнк
частина
штука
якоі
іншим
історіі
##ified
##ight
##ium
##ized
##ls
##ney
##ster
##ul
##ung
##ver
##ально
##атись
##аюсь
##ван
##дали
##ждение
##жил
##кт
##лін
##ників
##ниця
##нула
##нули
##од
##рь
##стить
##тую
##ували
##уть
##чил
##чну
##шая
##шити
##щеи
##ьте
##як
##ік
advice
arrived
awesome
bloody
books
bunch
clark
conversation
copy
crying
driver
flying
hoping
jake
keys
lee
london
otherwise
prefer
richard
roll
rule
seemed
shame
showed
starting
stories
survive
teacher
teeth
trial
village
адам
адвокат
будьте
вiн
вернулась
воду
воды
відразу
джеик
дозволь
докторе
допоможи
другии
душу
дэнни
завгодно
заити
земле
зробиш
истории
какую
камеру
капітан
магазин
макс
ме
месяц
мэм
навсегда
наскільки
наступного
неможливо
определенно
перше
плевать
повірити
подумать
потерял
працював
принесу
раптом
рахунок
решили
роблю
родители
руками
связи
слышишь
собирался
спокоинои
удар
усім
хвилинку
хотелось
член
якась
##cь
##j
##ol
##аціі
##вався
##вки
##жаи
##жена
##жки
##кав
##лено
##лка
##льныи
##ляи
##мер
##нн
##пт
##ред
##рою
##снии
##сту
##ські
##тан
##ули
##цев
##чені
##чись
##чных
##щи
##ях
19
admit
beach
beginning
brilliant
camp
castle
chicken
clearly
closer
cry
dirty
disappeared
dollars
excellent
fuckin
gate
hole
involved
justice
keeping
knowing
laugh
lay
military
nose
picked
planning
proof
purpose
returned
target
trade
understood
upon
yo
авто
ані
боку
ввиду
вероятно
второи
готово
делала
дивіться
ехать
залишив
запах
зброю
зброя
золото
игры
историю
комп
котором
которым
купив
леитенант
лорд
лос
любил
лікарні
маленька
молодець
наприклад
начнем
ненавижу
оставил
панове
плюс
поводу
подруга
померти
посмотрите
поіхали
прошлом
пыталась
работаю
світло
сделаешь
слава
страшного
сша
тюрьме
умереть
уходи
хлопців
цe
чекає
##ations
##lan
##rate
##tive
##use
##аитесь
##ак
##аєте
##вер
##даи
##жит
##жнии
##жок
##ику
##итеся
##каи
##льна
##нда
##нным
##рои
##ури
##чати
##щении
##ід
22
animal
animals
beast
blind
doors
due
finding
further
ghost
glass
ideas
johnny
laughs
local
locked
mail
nature
note
nowhere
operation
ordered
page
powerful
project
research
river
screaming
shirt
soldiers
tape
themselves
video
ways
weekend
whether
большая
бывает
вибір
вино
всередині
візьму
години
держись
джеимс
ди
добра
допомога
допоможе
дядя
единственная
емі
збираєшся
звали
игра
кажеш
кеит
ключі
мистера
нi
например
начал
неважно
нечего
никакого
никуда
объяснить
отношения
отцом
пива
поруч
потеряла
почав
прииом
продолжаи
самая
сидеть
смешно
тисяч
тримати
хвилину
хеи
цілком
чую
язку
##ded
##itor
##ko
##mon
##ude
##well
##ані
##ас
##аєшся
##вают
##вих
##вом
##еде
##ере
##ея
##жала
##ждения
##зно
##ировать
##ляти
##мон
##нении
##ніть
##пити
##рила
##рк
##рс
##рует
##ск
##ське
##ських
##тал
##ування
##уите
##ун
##шого
##щая
##щик
andy
beg
bird
breath
camera
charles
client
corner
daniel
dean
decide
discuss
driving
earlier
eddie
expected
faith
fake
favor
fbi
feed
finger
hadn
health
held
however
huge
majesty
mayor
nearly
ought
places
plans
practice
professional
reading
repeat
robert
round
ryan
stolen
washington
west
witness
богом
боль
боюся
будущее
випадку
випадок
вулиці
відчуваю
герои
делу
доступ
женои
забыть
зможемо
зробить
книга
коп
кохаю
мамы
менее
месяца
місця
нікуди
операции
останніи
отличныи
перша
повернуся
позволю
поздравляю
познакомиться
понадобится
принять
припини
приіхав
провели
прокляття
пытается
пізніше
скажете
словно
согласен
спать
спробуи
стане
упх
церкви
##ai
##ak
##aking
##lla
##ments
##ming
##uit
##va
##аитеся
##алися
##бок
##валися
##вания
##вно
##дні
##док
##зывает
##кое
##льные
##мати
##мои
##немо
##нець
##оном
##рав
##рно
##ровал
##рю
##ріі
##ству
##тыи
##ціи
##чали
##чат
##чаю
##ческая
##чную
##шего
##шек
##шие
##шло
##яли
##іна
bigger
bite
breaking
cards
cheers
chuck
credit
danger
draw
hardly
harm
heaven
hook
hunt
ii
jason
lately
martin
match
moon
motherfucker
national
nor
plus
pop
rose
serve
sight
size
tight
usual
weapons
willing
written
адрес
блин
брате
верить
вести
взяла
встречу
відповідь
гарри
главныи
дерева
едді
жертвы
залиш
замуж
знають
имени
картер
квартиру
купил
легше
любиш
літак
минулого
моєю
мпх
належить
намагаюся
непогано
обох
особливо
остання
пити
планы
повернення
поидешь
показати
получается
поліція
поліціі
последние
приишла
роль
рука
самому
своіми
силы
система
сідаи
тіло
часи
че
чтo
школи
язниці
##and
##be
##gs
##ha
##ise
##iв
##mp
##ms
##ng
##ons
##pers
##ris
##rk
##tch
##uck
##vin
##бити
##вании
##ган
##дам
##дають
##ед
##ез
##емо
##жили
##жна
##из
##ині
##лет
##лик
##нер
##неш
##ников
##нна
##нього
##ову
##рати
##рив
##рую
##ріи
##рія
##стве
##тні
##тя
##уса
##ход
##хід
##ческии
##чого
##ями
##ян
##іла
balls
ben
bodies
bringing
brings
dan
doc
dreams
emily
guilty
hat
heading
invited
jacket
jail
legs
lisa
luke
madame
meat
naked
numbers
oil
opinion
outta
papers
personally
played
program
records
russian
sarah
scene
sighs
somehow
spoke
stars
stone
summer
suspect
taught
warm
waste
whenever
woods
брати
вечера
внутрь
віини
гадаєш
господь
декілька
добраніч
дізнатися
завдання
защитить
звучить
качестве
комнату
конца
корабель
купити
можливість
мусиш
наркотики
немедленно
носить
ніщо
останні
первое
побачимося
поговорим
пожаловать
позволь
померла
помните
послухаите
послушаите
постіино
правило
пішла
розслабся
рішення
своєму
сделает
слышать
страх
существует
таком
твоєму
телефону
трубку
убивать
увидел
ходить
холодно
хорош
хотим
центр
чекати
чертовски
чином
шаг
штуку
язок
##ade
##ah
##ass
##ax
##cle
##ell
##eт
##head
##ison
##ius
##iи
##light
##mer
##ncy
##ned
##rn
##ud
##ute
##vy
##ya
##zed
##бка
##вані
##вин
##вна
##дa
##дят
##ели
##ери
##жная
##зы
##ине
##ишся
##кали
##кувати
##лив
##лов
##мом
##нили
##ннои
##пись
##рна
##сия
##сла
##сне
##ств
##стью
##тo
##таи
##тив
##тить
##ути
##фб
##фу
##чек
##шке
##щать
##іти
although
arthur
awful
believed
beyond
brown
career
destroyed
dick
energy
folks
genius
grandma
kelly
knock
lab
losing
loud
mood
mystery
noticed
oliver
onto
pie
plenty
powers
princess
process
race
reasons
spirit
st
stage
steve
suddenly
suicide
tongue
twenty
vote
writing
адвоката
брак
брось
буває
вашому
вгору
великі
виишло
встреча
выидет
выше
генерал
годину
города
група
двереи
двигаться
декстер
домом
дорозі
друзьями
думаи
дуґале
жінку
заняться
звідти
зупинити
зустрічі
иорк
использовать
кажи
каких
крізь
купить
кінці
любила
люк
морган
нa
означает
оставаться
остальные
офис
пиво
позвоню
помогает
почати
появился
поіхати
рассказала
своєі
секрет
снаружи
совет
сынок
твоім
тест
ушла
фзн
френк
хвилини
цель
цілии
чекаю
якусь
іншому
історію
##ach
##ap
##ates
##down
##els
##ence
##ern
##ists
##lip
##lt
##rick
##sive
##time
##tte
##une
##work
##zy
##альнии
##ара
##ація
##гал
##гати
##гер
##гти
##дав
##дил
##ером
##еру
##жает
##жали
##жим
##ливии
##ллі
##лося
##ляють
##нные
##оні
##орі
##рах
##тна
##тра
##тю
##чество
##ькии
##ьку
##ьне
23
35
arrested
assistant
band
battle
belong
bottom
cake
carter
covered
cup
details
dry
ed
evil
famous
freedom
glasses
invite
japanese
jealous
large
main
meaning
murdered
nick
pounds
prisoner
silver
thoughts
tommy
type
tи
unit
walked
warning
wondering
бля
бою
ввечері
весілля
вовсе
впевнена
втратив
втратили
выглядеть
гиб
дает
днк
дэвид
дядько
жену
завдяки
задницу
закон
занят
звук
зло
знаидемо
изменить
исправить
капітане
крові
кімнату
маиор
называется
наиди
наикращии
намагається
намного
настоящии
нашем
неделе
нові
ногу
одном
отличная
первым
перевод
повір
половину
получила
получше
похож
почуття
прекрасна
приходить
просить
проте
робимо
розповісти
роуз
рпх
річард
своему
сем
семье
систему
случится
слышу
слів
сможете
сообщение
стороне
сукин
такому
убираися
целыи
части
чжун
шо
шукати
эмили
ідіть
##ans
##board
##che
##een
##fully
##ix
##one
##ys
##алась
##альныи
##аються
##аємося
##бор
##ває
##веди
##вен
##гии
##дим
##дон
##екс
##ене
##жусь
##зку
##идет
##кало
##лить
##лыи
##має
##нию
##нять
##ос
##пустить
##рал
##ран
##реи
##рн
##рус
##тву
##тныи
##тов
##тою
##увала
##ул
##фер
##ходу
##циеи
##цями
##чел
##чих
##чкои
##щую
##ыми
##ьні
americans
anna
aye
brave
buried
burning
cases
chloe
chris
comfortable
common
connected
cream
dig
dropped
dumb
er
exist
goin
grew
hundred
incredible
joey
judy
kevin
lies
likely
lover
lucy
member
original
papa
penny
pete
pieces
points
prepare
prepared
prince
request
responsibility
results
san
scott
screwed
shoes
singing
sold
speech
storm
tells
thomas
travel
trick
turning
аи
ам
благодаря
вашему
вашоі
веришь
вечеринка
вещь
виглядаєш
вистачить
вихід
вышло
газ
голові
дамы
джеин
дочка
думає
дупу
женщину
залишилося
залишитися
замечательно
збирався
имел
клэр
лица
мертві
миру
місяців
наказ
недель
неправда
ніи
обіцяю
одразу
отпусти
первая
первои
поверь
поехать
помощи
почали
пощастило
причини
піде
расскажу
речь
решила
рои
сестры
сил
слышали
смысл
собака
собирается
типу
томас
тримаися
убери
убила
угу
участь
фпхт
хвилюися
хе
чек
чувствовать
шон
щастя
ьфи
этo
##ane
##ering
##gate
##gle
##ita
##ith
##que
##ration
##ship
##sing
##tes
##tin
##tle
##альна
##вел
##гає
##годи
##жник
##жно
##ип
##иці
##лс
##ляли
##лія
##нял
##овые
##ома
##порт
##рг
##со
##став
##тика
##ушки
##фі
##хожу
##чен
##ческое
##чних
##чное
##шее
##щення
##щество
##ьна
##ьнои
##єм
48
afford
assume
birth
bom
bottle
bucks
charges
cheese
easier
exciting
fellow
forced
funeral
heat
hm
honestly
horrible
inspector
jobs
leonard
madam
map
maria
minister
mmm
mountain
older
ours
planned
pool
post
pressure
recently
remind
selling
shh
showing
signal
tie
united
барбі
батьків
беги
бизнес
близко
братом
бхфь
вбивство
вдалося
великого
внимания
возьму
воина
вперше
всесвіт
вышел
генри
головне
гірше
договорились
дружину
дівчину
дідько
жарт
жахливо
жду
жизнью
забрал
заимет
захочешь
зустріч
зірки
идеш
ищу
каждого
кажучи
клуб
книги
команди
контроль
костюм
красиво
лучшее
любии
мами
минуты
море
ненавиджу
новая
новое
обоих
опасности
останется
офицер
платье
побачиш
полковник
половина
помогать
помощью
порядок
последняя
принц
пробачте
просил
разі
раиан
ранее
рок
сексом
семью
серця
синку
ситуации
солдат
станеться
становится
столе
стріляти
счастлив
такою
такую
убьет
умрет
урок
фб
хочеться
человеком
чоловіків
чули
школы
##ca
##cs
##ep
##go
##ham
##lly
##oe
##tt
##uring
##val
##ved
##аду
##дж
##дія
##зки
##зна
##ино
##кам
##лку
##лых
##льнои
##льні
##ліі
##мав
##нице
##ннии
##нных
##овыи
##ога
##ону
##ость
##очку
##пал
##пив
##рен
##стань
##ством
##того
##тые
##уют
##ходь
##цією
##чает
##чаи
##ческои
##читься
##шел
##щить
##яв
aunt
based
biggest
bread
central
chocolate
clever
cole
discovered
dogs
drew
emma
england
enter
fill
forgotten
fortune
hurts
jane
lesson
license
lift
matters
milk
owner
pants
perfectly
permission
plays
reached
received
runs
sexual
skin
spare
stayed
tall
universe
weak
whore
авжеж
автобус
беру
билл
благодарю
вау
велике
видимо
винен
воины
ворота
восемь
відомо
главное
годы
гори
двоих
девочки
доверять
допомоги
друзями
думати
дух
дівчата
дістати
еда
ем
женщин
жертва
забери
залиште
запам
звонил
идуть
имела
комната
кэтрин
ложь
мамои
милость
мнение
необходимо
никак
окрім
осторожно
острів
першого
платить
подалі
подождать
поза
позвони
помогу
поняли
попробовать
постои
пояснити
прежнему
президента
просимо
разница
ресторан
роботі
сделку
состоянии
спершу
среди
тему
тип
убив
ублюдок
удалось
ходи
цими
черныи
чимось
чудовии
шляху
эми
єдина
##ase
##bing
##cal
##em
##hi
##hy
##ick
##ied
##ik
##iles
##ill
##ines
##ize
##more
##my
##rid
##row
##ses
##ties
##ume
##unt
##ань
##аюся
##бираю
##вет
##вого
##гли
##дер
##дии
##дила
##дою
##діі
##его
##жеи
##живать
##жила
##жке
##жные
##жніи
##зал
##зли
##илася
##итель
##ливе
##ливі
##литься
##лювати
##люся
##мент
##нців
##няя
##овать
##ору
##оя
##пустіть
##рала
##рам
##рим
##рне
##сили
##сп
##ствовать
##ську
##тать
##тики
##чески
##ческие
##шения
##ывает
##эк
##ются
70
aboard
account
adam
appears
awake
boom
bullet
century
chase
condition
connection
crack
data
delicious
demon
device
drinking
excited
expert
extra
files
flat
flowers
followed
games
growing
grunts
heh
jerry
language
larry
leaves
members
midnight
model
officers
paying
recognize
rent
rome
science
separate
sexy
shane
ships
shooting
signed
social
soldier
states
ted
total
ugly
watched
wet
whom
winter
баидуже
благаю
больницу
возможность
встречи
втік
выяснить
глаз
головою
гораздо
господин
греи
девушки
держите
дивитися
директор
довелося
душі
дівчинка
единственное
жила
зад
замовкни
запитати
кларк
клас
команду
кончено
курсе
леонард
миль
мозг
музика
мэри
назавжди
никакои
новини
новую
номера
нуль
обидва
облиш
операціі
очередь
повністю
поговорю
подарунок
подивитися
попасть
преступления
приехал
принеси
принял
проверь
просила
разумеется
ребят
рота
самои
сильнее
следовало
слов
случаино
смотрю
сплю
стає
стояти
стіл
считает
считаешь
сядь
тела
точки
улице
уявити
фотографии
фпн
хмм
ходити
хорошее
чарльз
чувство
чути
##ager
##ail
##ain
##book
##ches
##cks
##ery
##ew
##ini
##ire
##itch
##li
##nn
##ple
##po
##ren
##res
##rge
##sy
##ug
##wood
##ации
##бил
##ваем
##вался
##вана
##вник
##гадати
##дешь
##джу
##дувати
##дуть
##дять
##еля
##жаешь
##жеш
##жии
##зер
##зо
##илися
##ключить
##ливим
##лои
##ляется
##нику
##нная
##нько
##ована
##оги
##они
##оны
##ори
##очка
##очки
##пав
##рать
##рил
##рти
##рін
##сб
##ставил
##тала
##теля
##тнии
##тона
##тримати
##ует
##фт
##ходи
##чаешь
##чер
##чним
##чным
##шаи
##шими
##шок
##щает
##щен
##щение
##ьные
##ює
##яют
##єшся
##іл
##ілл
400
752
among
annie
ate
bath
bathroom
bay
bleeding
bless
bobby
cab
carl
celebrate
chair
color
cos
crowd
curious
desk
doctors
dozen
drinks
duke
ears
fingers
grave
handsome
hearing
hill
illegal
interview
jackson
kinda
medicine
memories
molly
monsieur
natural
opening
pal
pardon
per
pray
priest
pure
regret
regular
reports
ringing
robbery
safety
saturday
screw
senior
setting
shows
silent
simply
statement
strength
style
subject
sugar
tim
tip
towards
trees
view
vincent
whoever
witch
арміі
баксов
бобби
боги
большие
брехня
бізнес
більшість
вали
велику
вирішили
выбора
відчуття
віина
віину
вісім
глупо
головнии
готель
груди
дає
девять
дел
джим
дитя
доказать
другую
дівчат
едва
енді
жартуєш
жене
жили
забираися
забыла
замість
зміг
имовірно
ио
казати
корабль
крок
курс
кучу
ласкаво
лікар
многое
наверняка
начинается
нелегко
неприятности
ничто
нова
нове
обе
обед
оставь
остается
отримали
пеи
переживаи
першим
пишу
повітря
подивіться
позвольте
поидет
понравится
попал
потерять
потрібне
протягом
прошел
пытались
работала
разговор
салли
свободу
семь
сир
скотт
следы
слухати
спенсер
стоите
твоєю
трапилось
туалет
убиистве
уверены
украл
харви
хутко
шеф
элис
является
якими
ятаи
імені
іще
##00
##ack
##ake
##all
##au
##bed
##ci
##cies
##fer
##ica
##im
##ining
##ital
##ited
##kes
##mate
##med
##mi
##race
##the
##uing
##ula
##ury
##ux
##ад
##алось
##ани
##гает
##гне
##дают
##деи
##дем
##десят
##елье
##ены
##жати
##жив
##жныи
##ир
##кать
##кло
##лии
##лих
##лки
##ложить
##ляла
##ляється
##маи
##мана
##мена
##нах
##носить
##пис
##по
##рем
##рия
##рони
##сона
##стер
##тали
##тати
##тве
##тели
##тен
##тера
##ук
##хає
##чало
##чо
##шила
##шись
##шніи
##щаи
##ьем
##ькі
##ьного
##эин
##эль
##іда
##ією
36
alcohol
alien
amanda
arrive
aware
babies
barely
basically
became
bedroom
block
champagne
character
chest
council
dave
defense
developed
doug
dressed
drove
duck
equipment
expensive
failed
false
farm
fate
football
friday
friendship
gods
guests
horses
humans
hundreds
jean
kyle
laura
leader
legal
lion
literally
loss
managed
market
meal
mexico
monster
nurse
obvious
odd
opened
ow
picking
pig
piper
plant
previously
protecting
rude
rush
santa
seal
seek
settle
shower
slowly
surgery
technology
terms
thy
trap
truly
walls
weather
william
wrapped
америки
бажання
бар
божевільнии
вважає
вважаєш
вечеринку
вечерю
вибачення
видео
випити
волосы
времена
встречались
встречаться
глянь
давление
двічі
джереми
джимми
дивися
дивиться
дин
допомогу
дочери
другая
думки
життям
закончили
закончится
залишиться
замок
заниматься
заходьте
збирається
звонит
зла
кaк
каково
карен
кино
клер
кожному
компаніі
комусь
контракт
красивая
кімната
лист
любите
ма
мальчика
милии
мусимо
мільионів
наверху
написала
народу
невероятно
недостаточно
нову
нравятся
огонь
операция
оскільки
отдаи
пе
повнии
повільно
поговори
поеду
полно
поля
порно
потеряли
потрапити
почути
придурок
пришло
прошла
пістолет
ребенком
самых
своєю
світла
скаже
слухаю
смогли
сожалею
сонце
спала
стивен
стоять
схожии
сыном
таблетки
таилер
такоі
убедиться
убрать
удачи
уе
узнает
умею
цру
чан
чаю
штуки
щасливии
ють
язково
єдине
##ac
##ache
##ald
##als
##cted
##eat
##ect
##ett
##fe
##fy
##ined
##lock
##oгo
##rey
##rove
##sed
##table
##ui
##ura
##аете
##аешься
##алася
##бирати
##вод
##вою
##воі
##він
##гала
##гнуть
##дания
##ден
##ека
##зали
##знаю
##зор
##иков
##ично
##кала
##кли
##лати
##лог
##льки
##ляешься
##лях
##мб
##мка
##него
##ниться
##ньоі
##овано
##ове
##орд
##пка
##пы
##рес
##рну
##ское
##сні
##ставим
##ствие
##тная
##ула
##ур
##уємо
##фь
##хали
##ходьте
##чая
##чає
##чини
##чники
##шена
##шно
##щаю
##щите
##ьки
##ьких
##ьним
##ювати
##яешь
##ім
##іра
120
600
90
abby
agreement
alice
amen
ancient
armed
attempt
bang
belongs
bike
birds
brian
carefully
charlotte
chicago
coincidence
concern
county
courage
direct
dust
ear
east
eggs
elena
elizabeth
ended
enterprise
escaped
fallen
france
garden
giant
grandpa
happiness
hired
hunting
insurance
issue
issues
italian
jay
jerk
jesse
karen
knowledge
letters
lines
march
marks
mask
miracle
mister
official
photo
pizza
prime
prisoners
purse
restaurant
rights
secretary
secrets
senator
shoulder
smoking
snow
square
steady
suggest
taylor
term
tests
text
thin
throat
tied
trace
trained
treat
violent
walter
wasting
wolf
zone
анна
безумие
билли
битися
біи
ван
вбили
вечно
виноват
воити
вполне
вряд
всеми
всередину
відео
візьмемо
грає
гру
группа
дар
деб
делали
джесси
долг
дон
допоможу
дороге
дружиною
думают
душа
дізнався
елена
заберу
закончилось
заплатить
захист
згоден
земли
зрештою
игру
идешь
иорка
кави
казалось
камера
камінь
касается
леді
лучшая
лучшие
ліжку
маленькая
мамочка
матерью
мира
ммм
наверх
надзвичаино
называть
написав
настоящая
несмотря
нога
одяг
оказалось
оставаися
передаи
письма
плачу
повернеться
погании
подорож
показания
получишь
понравилось
попереду
почнемо
почув
появилась
поіхав
причин
провел
продовжуи
проишло
пса
пісню
расслабься
расследование
речеи
решить
родителеи
річарде
своіи
связь
сезон
семьеи
сердца
сидить
сидіти
сину
скажем
скажет
скоріше
слушать
спину
справедливо
старшии
старые
стоіть
счастлива
тижнів
тисячі
тримаите
тієі
убью
увидишь
узнала
фургон
хватает
хотілося
черту
чоловіки
чоловіком
школа
школі
щодня
этими
ятаєте
іти
іхні
##ants
##ball
##cture
##den
##dle
##ection
##ening
##eo
##ess
##ft
##gy
##hold
##hood
##ich
##ide
##iff
##ils
##ination
##iting
##izing
##ja
##lic
##lity
##lon
##lyn
##non
##nts
##pt
##ran
##ree
##rent
##rous
##side
##sis
##ular
##ule
##und
##za
##бныи
##вку
##гаю
##даешь
##дит
##дия
##дник
##дня
##езти
##еин
##еку
##еры
##етесь
##ету
##жешь
##жите
##жує
##зывал
##иду
##иком
##ины
##ишли
##кни
##ктор
##лера
##лим
##лым
##льнии
##лял
##лями
##маєш
##мок
##міи
##нимал
##нте
##нти
##ование
##ог
##оту
##пии
##плю
##пок
##расти
##рат
##рест
##рили
##рис
##сила
##скую
##сним
##сю
##тав
##тично
##уеи
##ходимо
##ході
##хом
##чами
##чества
##чоі
##шили
##шнии
##шні
##щее
##ького
##ьная
##ьт
##ялся
##яться
##іду
##іться
##іє
26
27
ability
advantage
alarm
ashamed
avoid
babe
becoming
bones
borrow
bow
burned
capable
cares
cast
claire
closing
complicated
curse
da
damage
dancing
deliver
director
dirt
disease
distance
divorce
ends
enemies
engine
estate
eve
falls
families
finds
golden
greatest
grey
guards
hated
insane
itself
kate
lily
location
manager
mentioned
merry
mighty
millions
mirror
noise
odds
package
path
paula
phil
pity
pocket
property
rachel
rat
reality
rip
romantic
route
royal
ruin
scare
sentence
shoe
silence
someplace
sooner
staring
threw
training
tunnel
vampire
victor
yelling
бачать
ближе
боишься
бомба
бос
буквально
вашем
вернешься
виишла
встрече
выход
выходит
віддаи
вірити
головы
девчонки
держаться
джеку
дивишся
дозволити
доля
донька
дурень
души
ел
зa
завтрак
задать
зазвичаи
залишився
заметил
заставляет
захистити
зброі
звони
знадобиться
знаиди
знаиду
знаходиться
значення
кимось
ключи
кольцо
команде
концов
королем
лично
людиною
лікаря
мак
машин
мила
молодец
мусить
мільион
наверно
наступнии
нашіи
неначе
нечто
общем
обід
одніи
оружия
оставили
отдать
пана
письмо
погляньте
получили
попросил
попросила
поряд
постели
поступил
поіду
правы
пригласил
приехали
примерно
продолжаите
проидет
прочь
проще
рассказывать
робила
робин
рут
самые
сбежать
свете
связаться
святого
ситуація
слышите
смысла
согласна
справжня
спробую
спросил
сработает
ставлю
старк
старі
су
сходить
считаю
течение
тише
тони
увидела
уолт
ушли
хорошего
чак
частью
чувства
чудо
чудова
чуєте
шериф
штат
эдди
энди
язані
ємо
іжу
інколи
інша
іхав
##ale
##ash
##bel
##bi
##born
##cover
##ered
##ets
##gan
##ict
##ify
##imate
##lo
##ond
##orn
##ound
##our
##oи
##ray
##rine
##roll
##ror
##ser
##tling
##tter
##uid
##ven
##ves
##you
##аги
##ального
##альные
##ант
##ард
##бом
##валась
##веду
##везти
##веи
##водить
##дання
##дения
##держать
##дра
##дут
##еди
##еду
##еем
##езд
##ельно
##ері
##ети
##еты
##ехать
##ечко
##жды
##жным
##зала
##зит
##зываи
##зываю
##ивать
##итись
##кa
##кому
##крыть
##лa
##лика
##лина
##лую
##нение
##нимаем
##нит
##ните
##ньому
##паи
##пали
##пит
##пки
##пустили
##рин
##риться
##ровали
##род
##рок
##рот
##руют
##рію
##сити
##стныи
##сів
##тами
##тая
##теи
##телем
##тия
##тник
##три
##форд
##хала
##хне
##ходят
##цов
##чается
##чала
##чило
##чноі
##шает
##шна
##шнього
##щается
##ьма
##эл
##эм
##яє
##іх
150
32
attitude
attorney
backup
bonnie
boots
brains
bright
british
butt
caused
changes
chinese
coat
conference
contract
convinced
create
criminal
crystal
custody
dating
destiny
disaster
doin
eventually
example
extremely
faces
familiar
fed
federal
forest
gain
harder
hearts
higher
highly
intend
jacob
jones
joseph
josh
knife
laid
loose
lower
male
manage
mile
murderer
museum
navy
neighbor
nope
offered
offering
paint
passion
piss
rain
revenge
roof
rory
sara
secure
shake
shift
shots
simon
skull
slept
spoken
stranger
sue
surely
talks
taxi
ticket
toast
tools
treated
troops
unfortunately
warn
wilson
wounded
ангел
банк
безпеки
белыи
беременна
ближче
бои
больнице
боротися
борту
боішся
брь
вариант
вбивати
вернись
видит
вип
волнуитесь
волосся
врятував
выходные
відчуваєш
гм
говоримо
годинник
горло
гри
данные
двадцять
двери
девушек
девушкои
делом
дерево
джеисон
джоуи
дивився
доброи
док
доказательства
долю
друге
другими
дэн
дякуємо
забагато
занимается
заставить
заходи
заходь
защищать
звонок
здравствуи
зняти
зрозуміли
играет
идиот
избавиться
изменилось
имена
инспектор
карл
класно
куплю
купол
куча
лишень
лі
ліс
малии
мальчики
микки
мимо
мозга
мысль
наидешь
начинаю
небезпечно
небольшои
новые
нож
ніякоі
обязан
опусти
останусь
отдохнуть
отношении
па
пари
партнер
первого
первую
перстень
писать
пит
пить
познаиомитися
полицию
поможешь
попросить
представляешь
преступление
привести
прием
принимать
приходится
продолжать
реган
розкажи
розум
розумнии
роман
свидания
сидел
собираемся
сожалению
сподобається
сподіваюсь
спрацює
срочно
створити
стране
страху
стрелять
тaк
телевізор
тижня
томми
тіи
уаит
убт
увагу
узнаю
улицы
умови
уряд
фильм
фродо
хаус
ход
цією
чекають
читав
чогось
якою
якіи
##ag
##back
##bie
##cated
##ctor
##ene
##ents
##eм
##fic
##fication
##gage
##gie
##ho
##hor
##ila
##ino
##ji
##lia
##load
##low
##mine
##mit
##nes
##nsion
##ony
##oo
##oon
##ory
##rade
##ral
##rator
##ric
##scription
##sity
##tors
##ube
##uce
##uff
##ulate
##ull
##ums
##ured
##ville
##yer
##zing
##ается
##алі
##ацію
##ача
##ашка
##биться
##вано
##вка
##вне
##вні
##вые
##вів
##гадаи
##гнали
##гнув
##года
##гом
##гою
##дании
##даєш
##дним
##едет
##едешь
##ежим
##енныи
##ерсон
##жаю
##жется
##зувати
##ике
##инои
##кл
##кість
##лло
##льным
##льных
##мираю
##мки
##мось
##нимает
##ниць
##нное
##нскии
##нут
##нька
##овании
##писал
##пиши
##пои
##пом
##пустил
##пустити
##раи
##рву
##ргу
##рел
##рих
##рныи
##сив
##сли
##стен
##стом
##тался
##тельныи
##тери
##тності
##ув
##усе
##цям
##чина
##чину
##чці
##шаю
##шение
##шил
##щения
##ьl
##ьи
##ьке
##ьную
##яють
##івся
##іг
##із
##іллі
##інці
##ґ
65
911
add
amount
attacked
attacks
believes
bell
belt
bud
cancer
chances
charity
checking
cia
cigarettes
circle
circumstances
coach
coast
committed
community
created
creature
dealing
decent
desperate
detail
direction
disgusting
district
dna
drag
dump
edge
effort
embarrassed
engaged
event
falling
fancy
fetch
fifth
flash
foreign
fought
fuel
garage
grown
hank
harold
healthy
hidden
howard
including
joint
launch
league
leo
loser
magazine
mostly
mulder
nasty
naturally
online
oн
partners
pissed
poison
positive
possibility
pretend
pride
pulled
raised
range
realized
refuse
role
sale
services
shouting
shy
sisters
soft
solid
somali
souls
source
speaks
spread
spring
staff
sudden
suffering
surveillance
suspicious
tank
thee
theory
threat
tour
tower
treasure
waited
wednesday
weight
woke
yard
америка
бачить
блль
большую
бік
біллі
важное
вещеи
вибору
вкус
возможности
ворог
врешті
втекти
вызвать
вытащить
віддати
гарні
глазах
година
дa
давать
детьми
дехто
джона
дорога
дракона
думають
еге
женщинои
жертву
жил
жоден
забути
закінчив
золота
зрозуміла
имеют
каждую
казали
камеры
кафе
козел
комнаты
коня
корабля
кости
краіну
кімнати
лежить
любую
лікарю
маме
марта
межі
мертвы
многие
мова
муад
музику
мільиони
навредить
назвал
наибільше
наикраща
написати
настоящему
начало
нравилось
ніде
ніяк
одни
окно
опасно
оставьте
останнє
ответы
отець
открыть
отправить
отримаєш
передаите
песню
подзвонити
подивись
подумати
позвонил
позвонила
поліцію
помог
помощник
поскольку
послал
поідемо
представляю
прекратить
принадлежит
принесла
приніс
продовжувати
прошли
пітер
радіо
реально
рода
році
рэичел
связаны
сержанте
сесть
сином
скучно
слегка
следующеи
словами
собиралась
спас
способен
справі
спробуємо
стан
станешь
старого
старше
старыи
стол
суде
судя
сучии
схожу
тата
таємниці
тедді
тобi
трішки
увижу
уехал
умирает
усього
форму
ходив
хорошеи
хорошим
хуи
целую
чувствовала
чушь
шлюха
штук
шукав
шутка
яиця
ясувати
ігри
імена
##ailing
##ang
##bit
##cher
##die
##eep
##ees
##eon
##fire
##ids
##igh
##ique
##itive
##its
##just
##lation
##link
##lished
##lle
##nding
##ona
##pi
##ques
##rel
##room
##rse
##ther
##ti
##tis
##uel
##ught
##ult
##win
##ying
##°у
##ο
##альная
##ари
##атор
##била
##бки
##бую
##внии
##гар
##гнення
##гон
##гі
##дается
##дан
##дачу
##див
##дного
##дныи
##дував
##ести
##жe
##ждаться
##жено
##жного
##жіть
##зом
##илось
##иму
##инг
##каю
##клав
##кол
##лены
##лити
##лод
##луга
##лька
##льну
##ляв
##мно
##мов
##мую
##нами
##нга
##нения
##нешь
##нив
##нием
##никами
##нил
##нимаю
##нов
##нтов
##нюю
##няв
##ови
##овка
##овує
##ожу
##пустив
##раку
##рення
##риста
##рная
##руешь
##ріс
##сить
##сок
##ставити
##ственно
##стві
##ступить
##ським
##тає
##тили
##тке
##тт
##тті
##тым
##хаи
##ходит
##чання
##чены
##чилась
##чувати
##шним
##щал
##щание
##щем
##щина
##ывал
##ывают
##яла
##ята
##ѕя
##іни
##іру
1000
37
abandoned
adventure
agency
ambulance
approach
artist
aw
banks
basement
cap
center
changing
chat
chose
confession
considered
convince
cooking
coward
cure
damned
debt
demand
eaten
emperor
empire
exact
exchange
fellas
forces
forth
fourth
fully
garbage
gasps
gentleman
goodness
grandfather
greater
guarantee
gym
hanging
hunter
image
incredibly
internal
joking
junior
karl
kicked
lane
leading
led
load
louis
marcus
mass
matt
michelle
monkey
morgan
movement
murders
non
pair
patients
pee
period
progress
provide
punch
release
released
rice
robin
schedule
screen
sean
section
signs
smells
sometime
specific
split
stan
stock
stomach
stood
stronger
susan
task
testimony
thief
thousands
thursday
title
tone
touched
treatment
union
university
unusual
useful
vice
vision
warrant
wash
wide
wings
ааа
армія
барри
беспокоися
беспокоит
беспокоиться
борт
браво
браиан
бросил
біжи
біль
вашингтон
вбивства
вдвоем
веди
великим
взгляни
взглянуть
вигляд
вмієш
встретил
всюди
выбраться
вышла
віддав
відкрии
відкрити
відпусти
вітаємо
голоднии
девушку
дерьма
десяти
джиммі
дитиною
документи
донні
дослідження
драконів
дружини
дружище
думка
дідька
ждала
жди
живешь
живых
жінкою
забавно
зависит
заклад
запитання
заплачу
запросив
захищати
здание
знаиомі
знаишла
знищити
зрения
идеально
информация
ищем
кар
клара
команды
компания
кращии
кудись
малышка
малюк
машині
менi
меч
минуле
музыка
називається
наикраще
наикращі
написать
настоящее
начали
небо
нос
обсудить
обсуждать
обіцяв
огромныи
однако
однієі
оливер
основном
особисто
осталась
остался
отказался
отцу
офисе
ошибка
память
папочка
пацан
певно
перевірити
плохое
повертаися
подивимося
подивитись
подходит
подякувати
познакомились
поимать
поимет
полегче
полицеискии
полныи
помре
понимает
попробуи
попытаться
потрясающе
почалося
починається
працюєш
привезли
придумал
придумать
приказ
принес
приходит
приіхала
проверил
продать
професор
прошлыи
прям
прізвище
пытаешься
рады
раза
ранен
риск
роберт
розповів
самим
самолет
святии
свято
секундочку
сенс
сериале
сзади
случиться
смотрел
сміття
собаки
спить
спокіи
справ
справиться
сражаться
столик
стіите
стіни
суддя
темно
трогаи
тюрьму
уехала
узнали
уиду
уолтер
ура
уходит
уходить
участок
уявляєш
фрэнк
фунтів
хер
ходила
цели
часі
читать
чорна
чудесно
шелдон
шукаю
щиро
язык
якесь
іду
ідіот
інформація
іншу
існують
##ative
##dal
##ella
##eps
##gled
##ican
##iest
##ii
##ility
##ily
##ken
##ker
##llow
##logical
##lone
##ose
##ote
##oю
##pse
##ram
##rap
##rass
##ride
##rie
##rin
##rity
##rrow
##rus
##tain
##tions
##town
##ture
##uan
##uation
##unk
##ures
##ution
##ws
##арить
##ару
##арю
##аются
##бери
##бираи
##биратися
##бирать
##бль
##блю
##бні
##бою
##брала
##бс
##ваися
##ваите
##вались
##вание
##ванні
##ват
##внои
##вои
##вол
##гадаю
##гия
##давать
##даем
##дається
##день
##дование
##довго
##дували
##дую
##ежала
##еки
##ело
##енні
##ерил
##ерх
##ерь
##ечку
##жается
##жат
##жены
##жені
##жих
##жнои
##зались
##зен
##зныи
##идем
##идешь
##ием
##кан
##кими
##кіи
##лад
##лами
##лево
##лил
##лк
##лля
##лтон
##ляються
##мали
##мане
##мет
##мии
##мів
##міє
##нa
##нати
##нать
##нго
##нен
##нете
##нке
##нном
##нцы
##нює
##няися
##овані
##овое
##овоі
##огу
##ока
##онов
##ором
##оу
##пку
##правду
##пхме
##рваться
##рист
##рода
##росла
##сел
##сите
##ским
##сна
##снуть
##ставку
##ственныи
##ствия
##стка
##сты
##талась
##тие
##тик
##тором
##тых
##тью
##тягнути
##уватися
##унки
##уру
##уфе
##ується
##фера
##хав
##хода
##ходить
##цом
##чимо
##чинити
##чите
##чишь
##чкою
##чніше
##шувати
##ьным
##ьных
##яется
##ѕо
##інь
28
33
99
accepted
actor
africa
aside
authority
bags
below
betray
betrayed
blanket
blew
bureau
butter
california
carried
catching
cents
cheap
cleaning
cliff
closet
crash
darkness
degrees
depends
determine
dies
dismissed
doll
dollar
downstairs
dumped
elevator
ending
fantastic
fashion
firm
fishing
freak
freeze
fruit
gosh
governor
gps
grade
grandmother
grateful
greek
guest
guide
harvey
headed
helps
holmes
hood
identified
impressed
instructions
international
introduce
item
jonathan
jordan
journey
knees
lake
liar
mental
moments
mustn
nathan
neighborhood
nightmare
nonsense
normally
norman
nothin
painting
physical
player
pleased
poirot
presence
proper
pulling
pussy
quality
sacrifice
saint
schools
schultz
session
shape
shopping
shortly
shown
site
smith
solve
spike
stopping
streets
supplies
swim
switch
talent
terrific
texas
theater
ton
tracking
trapped
uniform
useless
value
vince
weakness
wheel
windows
worker
батьком
батьку
бесс
большим
боці
брать
бывшии
быстреи
важливе
важнее
вбивця
вверх
вдячнии
везде
величество
вернемся
взгляд
використовувати
власну
вовремя
водою
возьмем
возьмите
впала
временем
встати
встретимся
выбрал
візьміть
віині
віриш
вірус
говорять
голоса
готовить
дворе
дебби
держу
джессі
дивні
дитини
довіряти
дурня
жены
жодноі
заберіть
забрала
зажди
закінчиться
залишили
заплатити
запропонувати
заткнися
зато
защиты
зможете
зможуть
знаидеш
знаидуть
значно
зобов
зустріти
зустрітися
издеваешься
ими
интервью
информацию
источник
касл
ки
книжку
количество
компанию
компьютер
коннор
кохана
кровью
ку
купу
кількість
лабораторіі
лежит
линкольн
лондон
любові
ліки
маика
маленькі
мамою
меган
мертвых
мечты
миллион
множество
модель
молока
момента
мсьє
мужчину
мужчины
надоело
нести
ножом
нудно
обожаю
объясняет
одежда
одиночку
остались
отвезти
ответить
отдел
отправил
певен
пенни
первые
переконати
писати
питань
платити
плохие
плохои
побачу
побери
повернись
повз
повинно
поговоримо
подобаються
подругу
поехал
пожалуи
показалось
попробую
попросити
попрошу
послав
поттер
похожа
президентом
привел
привело
приіхали
проблему
проект
просив
прощаи
півночі
работаем
разные
разобраться
решту
родина
роду
розмови
розуміє
рухатися
різні
свобода
секреты
сестри
сестру
системы
ситуация
след
службы
случается
сноу
сніданок
собаку
собираетесь
солнце
сорок
спав
справжнє
справжні
спробуите
спроси
столом
стосовно
стосується
суду
суть
сцену
съесть
сыну
сідаите
тижні
тоби
товар
трон
троє
тіла
уб
убедить
убивал
удивительно
узнаешь
уильям
умерли
упал
уровень
усіма
уши
уяви
фи
хороших
христа
цікавить
частину
чекаите
четверо
чуваче
штани
элисон
явився
язании
язки
яти
##ably
##act
##ato
##aw
##bby
##berg
##can
##cious
##cking
##dom
##duction
##gation
##hant
##iate
##int
##iving
##ked
##kie
##las
##let
##lot
##mond
##nal
##ni
##och
##od
##olve
##ort
##over
##pect
##rain
##ria
##rts
##stance
##stry
##sty
##sure
##tan
##test
##ulation
##urs
##urt
##ware
##worth
##ада
##ажає
##ама
##ач
##ашки
##бель
##беремо
##бився
##бку
##бна
##бно
##брав
##бування
##вается
##вач
##вить
##водит
##вых
##вість
##гла
##гнути
##году
##гія
##дi
##дера
##диш
##дцять
##ектор
##енс
##естер
##жав
##жним
##жя
##зиціі
##зка
##знать
##зни
##зные
##идите
##идіть
##иза
##инку
##кинути
##ключи
##коі
##лек
##лини
##лого
##лох
##лтать
##лчи
##ляешь
##ляются
##ліна
##маися
##мала
##мете
##мова
##нб
##ндо
##нец
##нила
##нитися
##нта
##нту
##нуло
##нькии
##ньо
##овая
##овище
##овую
##ода
##око
##ола
##пила
##писали
##писать
##прос
##пусти
##пустила
##работал
##рад
##рата
##рда
##рения
##риваи
##рию
##рма
##рного
##рні
##роваться
##рочка
##рси
##сер
##сию
##ско
##ставить
##ставлять
##ставь
##стера
##стити
##стно
##строить
##ступ
##тe
##тв
##тил
##тные
##тня
##тніи
##тріи
##тував
##тує
##тыми
##уз
##усь
##учил
##учить
##уш
##ущ
##уєте
##хати
##ходе
##ходжу
##цтва
##ціині
##чам
##ческого
##ческую
##чику
##чились
##чнее
##чник
##чном
##чному
##шать
##шено
##шлю
##шнего
##щено
##ько
##ьтесь
##ющии
##яите
##іишов
##іка
72
academy
airport
alert
amy
anger
anne
appear
awkward
bastards
begging
behavior
bible
billion
bound
bro
buffy
buildings
caesar
campaign
carol
carrying
channel
charming
chick
china
claim
climb
comin
comment
confirmed
construction
costs
crown
deck
deeply
defend
desire
disappear
disappointed
document
ellen
favour
federation
fifty
frightened
gorgeous
greg
hits
honour
humanity
identity
ignore
impressive
jenny
julia
julie
jury
katie
kidnapped
knight
learning
lois
lou
loving
maggie
maid
metal
mistaken
mistakes
mon
monroe
movies
nights
ocean
opens
palace
panic
parties
patrick
pays
percent
pope
pot
print
protection
puppy
radiation
rate
recall
retired
returning
rings
roy
russians
scale
score
someday
spencer
spider
sports
spy
study
suck
survived
sword
systems
tax
teddy
telephone
terry
thou
threatened
throwing
tiger
todd
traffic
transfer
trusted
tы
vacation
virgin
wheels
wound
yell
yellow
атаку
бабушка
баксів
бал
барон
братья
бумаги
біися
варіант
вашими
вашіи
ведешь
виишов
внезапно
водитель
возвращается
возвращаися
возле
волнует
востаннє
врать
встретились
всіи
втомився
выбрать
выжить
вызывает
выиграл
відповісти
відсотків
відіидіть
вітання
глава
гостеи
даст
двадцать
дерек
деяких
джеими
дженни
дзвонив
дно
добридень
доверяю
дозволю
допомогою
допоможеш
достать
дощ
душ
дівчини
діло
едем
енджі
ждут
желание
жертв
живете
живуть
заинятии
зак
закончил
закончить
залежить
залишається
запись
захочет
звільнення
змушении
зірка
играл
имеете
каждои
камери
книг
компанію
копы
кордон
которому
кошмар
коштує
красныи
краіна
кулю
куполом
лес
листа
лучшего
лучшему
лучших
люси
ліворуч
ліжко
маркус
масло
межами
миллиона
мозок
молодои
моря
му
містера
місяця
намагалися
напад
напевне
наплевать
нахуи
начинать
несомненно
нових
обоє
ожидал
остальное
остальных
останніх
остановись
открои
отпустите
отстои
очах
первых
першу
питав
питер
плану
плохая
плохого
повідомити
погана
поделиться
подружка
поедем
поезд
позаду
позвонили
покинуть
помилка
помилку
поняття
попрощаться
попытка
поставить
поступить
поцелуи
правил
працюєте
предлагаю
предложил
предложить
представление
прекрасныи
приблизно
прибрати
приеду
приимати
прииняти
приняла
припинити
причину
продати
проклятье
прокурор
проходите
псих
пів
підходить
підіиди
пісня
работаешь
работои
разговаривать
ранок
ранчо
реи
решать
рик
рисковать
ричард
родини
руке
света
связано
сделано
серия
скучаю
слушаю
смак
смеи
снять
собрать
спал
списку
спит
сработало
старому
століття
стосунки
стыдно
суда
суп
сэмми
тeбe
такси
татку
творится
тед
тетя
третіи
увесь
удачі
удовольствием
улики
упевнении
учитель
хвилює
херня
ходил
хороші
ху
целью
центрі
число
читаєш
чувствовал
чувствуете
шести
штаны
шукаєш
шум
энн
явиться
явно
яица
єш
ів
ідеі
##ander
##any
##ator
##aть
##aю
##ba
##bers
##burg
##cent
##ception
##cer
##cine
##come
##cution
##des
##ea
##end
##erson
##ex
##ez
##ffs
##gar
##ges
##gling
##he
##hole
##how
##iac
##iam
##ias
##ift
##iling
##ima
##imately
##inal
##inger
##itz
##kle
##lam
##laus
##lice
##lipped
##lk
##lor
##mar
##mie
##nna
##nne
##ock
##oid
##oke
##oot
##ops
##order
##ows
##pression
##quired
##rand
##read
##reme
##rian
##rill
##tal
##tone
##uary
##uffs
##umor
##von
##wards
##yard
##аваи
##альну
##асу
##ацию
##аш
##бер
##билась
##бирает
##бираться
##бираюсь
##бке
##бували
##бути
##ванням
##вають
##вная
##вому
##вуд
##гаешь
##гаи
##глі
##гня
##говор
##граю
##гроза
##даися
##дд
##дение
##дження
##дишь
##дке
##дор
##др
##дри
##дс
##дство
##дів
##еешь
##еке
##енты
##ену
##ерман
##етт
##ечить
##ждать
##ждении
##жемо
##жете
##жники
##зав
##звоню
##зла
##знии
##зя
##идеть
##ильник
##има
##ировка
##ица
##кo
##ковии
##крытие
##кса
##куда
##кции
##лав
##лали
##ласти
##лах
##лго
##ливу
##лично
##личные
##лла
##ллен
##льним
##льність
##ляите
##мається
##монд
##надцать
##нал
##нился
##ницеи
##нк
##нко
##нним
##нного
##новити
##нса
##нты
##нят
##овить
##овку
##одяться
##оз
##ози
##оль
##олю
##пати
##пать
##пеку
##пишу
##пустите
##работать
##равился
##рання
##ратить
##рацювати
##раю
##рди
##редить
##рее
##ремен
##рид
##ровала
##рог
##роду
##рос
##рут
##різати
##сен
##сни
##снити
##сное
##сные
##сов
##ставили
##стным
##стон
##ському
##с€
##тет
##тику
##тками
##тного
##тню
##тора
##тс
##тували
##тус
##уб
##уби
##устіть
##уэр
##фом
##ходити
##ходы
##цеи
##ци
##цька
##цях
##чав
##чают
##чених
##ческим
##чет
##чиво
##чился
##чителя
##чніи
##чусь
##шем
##шит
##шко
##щена
##ькоі
##ьме
##яву
##ял
##яло
##ясь
##ящего
##ірнии
##іхати
29
38
47
75
affair
agents
alan
ambassador
andrew
answers
appointment
approaching
assault
assure
available
barney
beating
beloved
boats
boo
breathing
bullets
bunny
button
buying
capture
captured
challenge
champion
chip
citizen
classic
cock
collection
confused
couch
dawn
derek
determined
diane
divorced
drama
dropping
earl
education
egg
el
en
enjoying
episode
exists
explanation
explosion
fan
feeding
fella
filled
filthy
fingerprints
flag
flew
flies
foundation
frankie
gathering
gear
gordon
grunting
gut
hates
herr
hills
hitting
hong
horn
idiots
imagination
intelligence
irish
jeff
jefferson
jessica
juice
kim
knocked
kong
laundry
library
limit
link
liver
lonely
ls
marty
meantime
messed
miserable
mix
monday
monsters
motion
moves
nerve
object
officially
parking
passing
placed
policy
political
port
properly
pyramids
quarter
recovered
removed
revolution
reward
rise
rocks
rough
saving
screams
scully
sensitive
settled
shock
signature
slaves
solution
solved
squad
stands
starving
stink
stops
stress
student
success
tail
tear
terrorists
thirty
timing
tiny
tons
tool
ugh
unhappy
vampires
voices
winner
winning
wyatt
zero
аарон
аль
армия
базе
бачимо
бензин
бн
болен
большинство
бонни
бросить
буваите
бывшая
важкии
ведет
веду
великою
вернулись
вечірка
вечірку
вижити
використати
випив
виправити
влада
воздух
волі
врач
всесвіту
вспомнить
всякии
відколи
відповіді
вікна
глибше
говорим
гордон
даних
данных
дах
держит
джеикоб
джентльмени
джин
джоффри
дивляться
дихаи
дни
добраться
довести
дозволу
документы
дольше
допоможете
досвід
доставить
ділеині
діяти
едет
жарко
забуду
забудьте
забула
заимусь
закончила
залишу
заставил
захисту
заявление
збираємося
збрехав
згідно
змогла
змогли
знаиде
знаки
знов
зніми
идеи
идете
извинения
иорке
использовал
итоге
кабинет
каву
капитана
карта
квартире
квіти
кеи
кидаи
кинув
кинути
клаус
клуба
кожноі
коледж
коло
контакт
контролем
краіні
кровати
купи
кусок
кэти
ла
лежать
лечение
лили
линда
лице
любив
любили
любого
лісі
макса
маленьких
мальчиков
мамі
меняется
метрів
минуло
мишель
многих
мов
молода
молодии
монстр
мысли
міні
наближається
наблюдения
наибільш
намагаєшся
наомі
напрямку
находиться
начинаешь
неловко
нескольких
несчастныи
нещаснии
новои
норме
нізащо
обвинения
обещал
одежду
однак
одолжение
операцию
опухоль
опыт
оставляет
останнім
отдал
отож
ошибку
пакет
пальто
парню
пациент
певнии
перші
пи
планети
планету
побачимо
побачите
повернешся
повернулися
поверьте
повтори
повідомили
подозреваемыи
полнои
получит
получу
послати
послугу
посмотрю
потрібнии
почуваюся
праздник
признаться
приидуть
прииняв
прикро
принесли
приятелю
провела
провів
произоидет
пугает
пяти
південь
раді
радістю
расскажешь
расскажите
результаты
решта
робили
розповідав
розповім
рон
рухається
рівень
різниця
садитесь
сбежал
свадьбы
свободе
силои
сказано
складно
следующая
службу
слухи
сні
сознания
солдаты
сомневаюсь
сонця
сообщения
спокоі
справимся
справишься
спрашивать
стара
статися
стиль
странное
стюарт
счастья
считать
сісти
танцювати
теория
теорія
тигр
требуется
тренер
тюрьмы
убеи
уважно
увидите
ударил
уилл
умирать
умру
уничтожить
уроки
услышала
учиться
фщн
хвора
хвории
хрена
цілі
чекав
червонии
черга
читати
чоловіче
шукає
шутишь
щаслива
эбби
янии
іграшки
ідь
інформацію
іншими
##ace
##ada
##ama
##ana
##ards
##aring
##ased
##aи
##aл
##bar
##beat
##cate
##ching
##coming
##cus
##cuted
##dies
##eer
##ement
##enger
##ens
##eves
##fied
##form
##gh
##ght
##gment
##gon
##hs
##ials
##icted
##iment
##inate
##ished
##itter
##ization
##late
##lement
##lis
##lish
##lities
##lour
##lug
##mos
##nder
##oм
##pel
##phia
##posal
##pose
##rading
##rated
##rich
##rily
##set
##si
##stic
##tie
##tings
##uch
##umour
##uous
##ural
##uss
##uts
##vention
##vor
##wn
##ажати
##аз
##аит
##аль
##альні
##ары
##ася
##ата
##атель
##ачі
##аючись
##баи
##баю
##ббі
##беремся
##бирає
##бита
##битися
##брати
##будем
##бует
##бір
##ваете
##вань
##вела
##вета
##вик
##вилася
##вну
##водити
##вро
##гадав
##галась
##гами
##гах
##ген
##годити
##граємо
##деть
##дец
##деш
##джер
##ега
##елих
##енді
##ению
##еннои
##еро
##еті
##жаися
##жаите
##жаться
##жись
##жнеи
##жны
##жных
##жність
##жувати
##заи
##зана
##зать
##зации
##звони
##здо
##зем
##зить
##иб
##илу
##ион
##ировал
##иство
##ительно
##ицы
##казує
##кинс
##класти
##кові
##кує
##лал
##лаю
##лая
##лететь
##летку
##ливая
##лився
##лики
##лились
##ложил
##ложу
##ломать
##льне
##льное
##лялися
##лянув
##ляюсь
##ляют
##ляєте
##лік
##мени
##мку
##мм
##мовити
##мою
##нився
##низу
##ниц
##нну
##нны
##нням
##новения
##ношу
##нство
##нца
##няли
##нято
##нях
##об
##оваться
##онд
##ох
##пала
##перт
##пил
##писати
##помнить
##пор
##пп
##пуск
##ражає
##ражении
##разі
##рами
##рано
##рая
##рги
##рев
##рек
##рели
##риваю
##рику
##рина
##рное
##рован
##рование
##роу
##ррі
##рту
##рыв
##слухати
##слушать
##смотреть
##сну
##ставлю
##ставляет
##ставляи
##ствуют
##стоит
##стую
##сько
##тана
##тации
##тацию
##тві
##телю
##терс
##тила
##тим
##тков
##тність
##тримувати
##тях
##уді
##уль
##ума
##ушке
##фет
##фия
##фф
##хватил
##хе
##цею
##ционнои
##цтво
##час
##чають
##ченні
##чень
##ческих
##ческом
##чеш
##чие
##чуття
##чую
##чья
##шеш
##щаешь
##щества
##ьник
##ьное
##эме
##энб
##эр
##эш
##ящих
##івки
##ігати
##іло
##іль
##іні
##іри
##істи
##ітко
##іхала
##іше
##ґпґщ
2012
31
aah
abandon
actual
advanced
aim
ally
alternative
apple
bars
base
bat
beef
beside
blah
blowing
brad
bump
bury
cabin
chatter
clay
clinic
clue
conduct
continues
cooper
cow
creative
culture
customer
damon
dana
dealt
dennis
deny
desert
differently
directly
documents
dope
dragon
drawing
dreamed
dreaming
eric
europe
fabulous
facility
fever
flesh
former
fox
fred
friendly
frozen
gary
gather
gee
gentle
glory
golf
grant
helicopter
hire
holes
hopes
ill
impression
italy
jeremy
kennedy
lack
le
levels
los
magnificent
malcolm
marie
messing
minor
mixed
mlke
motor
na
nah
nate
neill
nephew
ordinary
pathetic
pattern
phones
piano
pill
pilot
pink
powder
pushed
pushing
questioning
raising
ranch
remains
repair
represent
reputation
riding
rob
rope
ruined
salt
sand
sat
season
serial
serving
sharp
sin
society
spirits
spit
steel
steele
stephen
suffer
suite
swimming
swing
television
thanksgiving
tickets
tragedy
trail
transport
trash
troy
turtle
underneath
understanding
unknown
vulcan
wars
wire
witnesses
wood
wrist
аббі
аеропорту
акт
ану
армію
базу
банку
бежать
безумно
бене
берет
билет
бла
боли
больницы
бояться
брудні
будущем
ваннои
вбиває
вважають
вел
великих
виде
використовують
вину
вище
власність
вмію
вне
воспользоваться
воспоминания
впевнені
второе
вуха
выглядите
вынужден
выходить
відділ
відмінно
вірите
вітер
гадав
гарне
гендальф
генерале
глибоко
глория
глубже
глупыи
гляньте
горжусь
готелі
грошима
групи
гу
даси
дата
дають
дверью
девочек
девід
джека
джерри
джоан
джонсон
джуди
дихає
довбании
довше
дозволив
дозволяє
доиль
досье
думаем
дэниел
дядю
дізналися
дітьми
ен
енергіі
жахливі
ждем
ждешь
живем
живои
журнал
забрав
завести
загинув
закохався
залишитись
замало
замку
занята
захочу
защиту
збираються
звонила
звонить
звонки
звоню
звільнити
здания
зміни
зная
зник
зображення
зона
зразок
зря
зупинись
идут
избежать
изменится
иисус
информации
искал
используи
испортил
ищет
каждая
каждое
каи
калеб
камер
канал
квартира
кеиси
кит
кожна
кожним
коллінз
колір
контролювати
кораблі
которыми
крики
кричать
кровать
купа
кухне
кэсси
лео
лето
лицом
лукас
люблять
любят
людство
лікарню
ліпше
маиами
маленького
маршал
мест
месье
милорд
молоко
моіми
мужчин
мэгги
навряд
назвав
називати
называют
наидут
нападение
напали
народився
начальник
начнется
нащо
неважливо
некоторых
ненавидит
необхідно
ниже
нравишься
ніякого
обмануть
обращаться
одні
оказалась
останнього
остановиться
остаточно
острові
ответственность
отеле
отель
отношение
отношениях
отпечатки
отримаєте
отримує
очима
ошибки
париж
пас
песня
побольше
повернусь
повертається
погані
погода
подзвоню
подобного
подозреваемых
подумали
позволила
поисках
показал
покидьок
покое
покінчити
полі
помилки
помогла
помру
попробуем
послали
последнеи
поставив
поставили
початок
поізд
практически
працюють
прекрасная
пригласить
приехала
присягаюся
приходил
причины
проводить
продажу
продолжить
просили
професоре
проходить
пытаться
північ
підете
работали
разрушить
разум
раионе
рак
растет
результат
рецепт
родину
рождество
рулем
садись
самии
саму
санні
санта
свадьбу
свідчення
світом
сделаите
сел
сенсу
сериозні
сиди
сильна
сити
следующее
слушает
сліди
смогут
смотришь
сміх
собираются
совершил
совпадение
сообщить
состояние
сотни
справлюсь
стене
стив
странная
страны
стриваите
стрит
стріляв
сумку
сумно
твоіи
тема
темна
тими
тихіше
травма
третии
трех
трое
тысячи
тікаи
тією
убииств
убиицы
увіити
ужас
украли
умеешь
умрешь
упала
уперед
усю
хаос
хи
хлопчики
хороше
хрень
ценю
частиною
чекаємо
читал
чортів
чутки
шансы
шелдона
штата
штраф
щасливі
этаж
этаже
язницю
єр
ідеш
інформаціі
іншоі
іхніи
##ages
##aging
##ained
##ath
##bert
##bo
##cakes
##ciation
##cute
##day
##del
##don
##ected
##ernity
##ete
##gas
##hing
##icate
##ico
##ident
##ingly
##isle
##istic
##itions
##ival
##iн
##key
##lair
##lies
##lim
##lls
##mark
##matic
##mber
##mic
##mm
##nies
##nis
##nounce
##nus
##oes
##ool
##ora
##ou
##oк
##pet
##ph
##pted
##raham
##ribe
##right
##rio
##rite
##rley
##rm
##ross
##rush
##sist
##stitute
##stitution
##tar
##tent
##ua
##ucking
##ulse
##umb
##ummy
##ump
##urd
##ush
##vel
##vous
##ways
##zo
##zz
##ажаю
##анныи
##анні
##ательно
##атр
##ация
##ашку
##аще
##бi
##бавить
##бан
##бая
##бегать
##беи
##беру
##бирал
##блена
##бори
##брався
##бував
##вато
##вие
##вилися
##вими
##влечь
##внена
##вники
##вних
##вое
##ворі
##вчати
##відати
##гана
##гання
##глядати
##гов
##городу
##готовить
##грали
##грамма
##даси
##дова
##діи
##еб
##евои
##едем
##еды
##ежал
##еика
##елі
##енная
##енного
##енные
##ерситет
##ехал
##еі
##ждает
##живает
##жина
##жится
##зано
##зет
##зил
##зма
##знали
##знои
##зня
##зні
##зуи
##зываешь
##зывали
##зывают
##зькии
##имаю
##инки
##инок
##иняти
##ироваться
##ировки
##ист
##истер
##ителя
##кання
##кають
##квозь
##клад
##ковать
##кон
##кь
##кю
##лас
##лд
##леннои
##лень
##лені
##лился
##лині
##литися
##личие
##ломал
##лон
##лух
##лушаешь
##льная
##льних
##льца
##ляемся
##ляєшся
##ліє
##менять
##мирає
##мову
##мувати
##нення
##нено
##нешься
##нится
##нків
##нник
##нную
##новение
##нос
##ночі
##нства
##нуся
##няю
##обно
##овал
##овували
##оли
##печнии
##писав
##пно
##пня
##повідаю
##правление
##прошу
##пускать
##равиться
##разу
##рались
##рго
##резать
##рет
##рика
##рит
##рите
##рму
##рнии
##рним
##рона
##рону
##роні
##рта
##рувати
##рута
##рывает
##рюк
##рять
##ріл
##ріт
##садили
##садити
##сеи
##сет
##слав
##слал
##сного
##снуться
##ставлял
##станьте
##сток
##стрелить
##сіб
##сіі
##теин
##тувала
##тувати
##тіи
##увало
##уки
##улю
##унок
##унт
##уп
##уре
##фон
##фп
##хання
##ходил
##ходило
##ходять
##ходів
##цi
##цами
##цо
##ціинии
##чера
##чика
##чистить
##читывать
##чому
##чора
##чула
##чуть
##чує
##чуєш
##шати
##шают
##шина
##шками
##шкои
##шнє
##шо
##штувати
##шукати
##шується
##шіть
##щатися
##щаюсь
##щика
##щину
##щита
##щів
##ьким
##ьних
##ьну
##юється
##явил
##явили
##яду
##яки
##ялись
##яни
##янии
##ящеи
##ящим
##яєш
##івно
##іити
##іишла
##іишли
##іку
##інг
##іну
##ічно
01
800
advance
aliens
apology
april
argue
ari
asks
audrey
autopsy
bait
barbara
barry
becky
begins
beneath
benefit
beth
betty
bills
blackmail
bond
buck
bust
busted
cage
candy
catherine
chain
chairman
chasing
cheat
cheating
chips
choices
chosen
christian
classified
cleared
clients
cloud
committee
concentrate
concert
confirm
considering
coordinates
cried
critical
crossed
crush
ctu
currently
daily
dancer
decisions
dense
deserved
design
despite
disguise
division
donna
eagle
effective
endless
entirely
eternal
exercise
extraordinary
failure
fairy
fence
fights
forbidden
frankly
ghosts
gina
gossip
grief
guts
habit
handled
harris
helen
heт
highness
highway
hogan
hollywood
honeymoon
hoped
host
hostages
hung
ideal
indian
inform
intelligent
interests
interrupt
iraq
jill
july
jumped
katherine
kingdom
kirk
laughter
laws
lawyers
lets
lifetime
linda
listened
log
louise
mademoiselle
matches
media
medication
mercy
mia
miami
mick
mid
minds
mistress
nation
nelson
network
offense
olivia
opposite
oscar
pan
particular
particularly
patrol
photograph
pierre
pigs
pills
plain
plate
pro
psycho
rare
realise
rebecca
recent
region
remembered
reminds
remove
requires
rescue
resistance
review
rick
ricky
rifle
riley
salary
sauce
scary
scout
sector
served
shaking
sid
sink
soup
spending
spock
sport
spotted
stable
stanley
stays
stefan
steps
strip
students
studio
successful
sucks
superman
supply
taк
technically
temporary
threatening
toe
tracks
trigger
triple
trucks
units
unraveling
vegas
verdict
version
vessel
victims
victory
violence
visiting
von
walks
ward
warned
warp
warrior
wasted
waters
wave
whoo
willow
wives
wolves
wore
worries
wounds
yourselves
zoe
авеню
ад
ада
адресу
аду
альфа
амінь
аніж
атреідес
бабуся
бережи
берта
беспокоюсь
бити
блять
божевілля
божевільна
болит
боявся
бракує
бред
брюс
будівлю
бігти
біднии
вампиров
вашою
вбивав
вважав
вдасться
ветер
вибратися
визнати
власних
власть
внимательно
воздуха
вспомнил
встал
встать
вторая
втратити
выбирать
выпеи
вышли
віддаите
віддам
відповів
відповідає
відчував
відіиди
геніи
головои
гору
госпожа
гостя
греис
грубо
двигун
девчонка
деив
деиствовать
декого
демон
держал
джеимса
джеимсе
джефф
джоі
довга
дозвіл
доктору
допоміг
дорогии
дорого
драться
дупі
дурнии
дюран
дівчиною
ебать
единого
единственным
еды
ешь
животных
живым
жопу
задоволенням
заиняті
заишов
закончим
закінчили
закінчити
замужем
заміж
заново
занять
заслужил
заслужила
заставила
заходу
захотел
звуки
здоровье
здрастуите
злишься
знакомы
зубами
зуби
иoгo
игре
иен
ишов
ищешь
кам
карлос
класс
клиент
коктеиль
коментатор
конкретно
контролировать
контроля
копа
королевскои
корпорации
коул
кращим
краіни
крістін
купила
кусочек
кэролаин
кіно
легче
ледь
лекарство
летіти
лидер
лиза
лиззи
любимыи
любовью
любое
людства
ліжка
лініі
лісу
магия
маибутнього
мартин
маршрут
мбт
мертвих
местах
младшии
мо
можливості
мозку
моменту
моника
мотор
мудак
мужем
нac
навчити
наедине
назвала
назву
назовні
называешь
наикращого
направо
наркотиками
настав
начебто
начинает
недалеко
некоторое
нигде
новина
новому
ног
ніг
ніс
обвинение
обещала
обмін
обнаружили
образ
обставин
океан
око
оо
описати
оружием
остров
отвечает
отправила
отпустить
отримала
очеи
паинс
памяти
парнями
пені
перестал
петь
пил
пише
плавати
пляж
побачить
победить
побыть
поверніть
повторюю
повторяю
подивлюся
поднять
подіи
подіі
поесть
позаботиться
позади
позволил
поидемте
покажіть
показывают
покидьки
покинула
покоління
пола
полковника
полная
пользу
помнить
помогал
попросили
последнего
постараися
постріл
потрапив
почала
почту
пошло
пояснення
правдои
праворуч
пресс
прибыли
прив
приведет
привела
привид
привів
приду
придумав
придут
признать
присоединиться
приходити
приіде
проблемои
проверьте
програму
продав
продовжуите
пропала
простіше
проходили
пустелі
пью
підлозі
підняти
работают
радио
раион
реичел
решения
робіть
роде
родился
розкажіть
розмовляли
розумна
розуму
россии
рплэ
рукои
рухаися
рядовии
своя
сделка
сидит
сильніше
ситуацию
скелі
склад
скорость
слева
следить
служба
смотрит
смс
сне
собак
собирались
солгал
солдати
сошел
специально
спи
спитати
спогади
способом
справжньому
спрашиваешь
спустя
ставки
стараюсь
старик
стены
стефан
стояла
стояли
судить
схожа
схожі
сценарии
считаете
сюжет
талант
танцевать
татко
тварина
темноі
температура
товаришу
трахнуть
триматися
труп
тяжко
убиицу
уваги
угода
удивлен
удобно
уеиворд
узнают
улюблении
уме
управления
услышал
устала
устраивает
устроиство
утік
уходим
уходите
ухожу
факты
флот
фу
фізики
фільми
хлопцем
хлопчику
ходили
холмс
хуя
хід
церква
ци
ціну
ціную
чарльзе
часів
человеку
честер
чжи
читала
чомусь
чорнии
чорні
чотирьох
шелдоне
шлюб
шматок
щасливим
щасти
щастить
щоби
элли
эмма
энни
язати
ящик
іжа
іжі
іхніх
##15
##ab
##acing
##aid
##ave
##berry
##bes
##beth
##bly
##card
##cas
##ces
##chi
##con
##covery
##craft
##cting
##ders
##dicate
##ein
##ele
##ender
##epe
##eping
##erd
##eve
##eи
##eшь
##father
##fusing
##gard
##gic
##guard
##gue
##gun
##hai
##hen
##hin
##iance
##ically
##icient
##icle
##icles
##ient
##igned
##igo
##ika
##ille
##inch
##ior
##iser
##ites
##kins
##lace
##lane
##lea
##llo
##logist
##logy
##mates
##min
##nel
##nity
##oked
##ola
##olf
##omy
##oral
##ork
##pa
##play
##plied
##pressed
##rat
##rating
##rc
##ribly
##ridge
##rina
##roy
##rupt
##serve
##sign
##stantly
##struction
##tail
##tate
##ually
##uate
##ugh
##uis
##urge
##verage
##vey
##vious
##vise
##wa
##word
##zer
##zzy
##аба
##ажать
##алося
##альных
##анець
##анку
##атиме
##атнии
##бав
##бах
##берусь
##блен
##бного
##бовал
##бре
##бросить
##бру
##был
##ваги
##вачі
##ваємо
##вається
##верял
##вете
##вника
##вним
##вные
##вода
##вок
##вс
##вує
##вчав
##вір
##гадали
##гель
##гию
##глянути
##говорить
##години
##граем
##гію
##гіі
##дание
##даст
##датель
##делить
##держки
##дете
##дие
##дите
##дкии
##дних
##дувала
##дур
##дывать
##дію
##евін
##едеш
##едная
##езда
##езет
##езу
##ект
##елен
##емыи
##енных
##ео
##ерег
##ерите
##ерну
##етта
##етто
##жая
##ждал
##жек
##жела
##жением
##женні
##жері
##жечь
##живали
##живаться
##житься
##жишь
##жника
##жное
##жується
##звать
##знав
##знал
##знании
##знаєш
##зов
##зок
##зував
##зують
##зує
##зывала
##зывать
##иеи
##иер
##иків
##илия
##име
##инии
##иняли
##иса
##иті
##ически
##кет
##кнуть
##кость
##крыто
##кти
##лi
##лаву
##лади
##лак
##лению
##ливість
##лия
##лога
##лос
##льку
##лючение
##лявся
##ляем
##ляетесь
##літку
##лію
##мар
##мари
##мах
##менил
##менти
##мену
##мера
##мна
##мор
##нав
##наи
##нання
##ндии
##нера
##несло
##нис
##нками
##нкои
##нне
##нности
##нню
##ностью
##нп
##нские
##нська
##нських
##нуться
##нує
##нуєш
##нш
##няется
##няла
##ням
##нями
##няти
##ніша
##нія
##ования
##овим
##овувати
##овуючи
##овуєш
##овых
##овіи
##оди
##ожении
##ожных
##оки
##окии
##олу
##орить
##оты
##очии
##ператора
##пили
##писание
##пископ
##питися
##питься
##пли
##пныи
##положение
##пускаю
##пущу
##пх
##пхт
##раву
##раешь
##раздновать
##разить
##рана
##ратиться
##рб
##рдів
##реждение
##реть
##рею
##риан
##риці
##рмальнии
##роби
##рого
##рое
##року
##рости
##роти
##рсі
##ртон
##рті
##руга
##рым
##рює
##ряться
##ріх
##сал
##сие
##сил
##сим
##син
##сит
##следить
##сныи
##становил
##ступление
##стя
##стями
##ськи
##тах
##тащил
##таю
##твы
##теро
##терів
##тих
##тне
##тнои
##тную
##тным
##тнім
##трів
##туи
##тягни
##уется
##уні
##урі
##ута
##ушкои
##ушку
##фби
##фли
##ходження
##хоплення
##хідні
##цени
##цював
##чатися
##ченного
##ченого
##чився
##чинку
##чині
##читал
##чится
##чишься
##чками
##чком
##чте
##чули
##чується
##шедшии
##шен
##шению
##шив
##шливо
##шне
##шные
##шому
##штували
##щаитесь
##щались
##щені
##щность
##ываем
##ывается
##ывала
##ынок
##ычныи
##ьi
##ьеи
##ьет
##ьфе
##эвис
##эг
##эд
##энни
##ювання
##юр
##ючии
##юємо
##яб
##явиться
##яете
##янки
##яснил
##ятныи
##ящии
##ємнии
##ібратися
##івку
##іидіть
##іиська
##ільнии
##ілі
##іне
##істю
##іті
##іхав
##ґа
##ґо
2000
aaron
ad
admiral
admitted
adult
ambush
angle
anniversary
anonymous
anytime
appeared
appropriate
argument
ashes
attempting
attractive
audience
avenue
bailey
baker
baseball
becomes
belly
bishop
bitches
blast
blessing
blown
bored
boring
bowl
boxes
bracelet
breasts
bruce
bum
caroline
carrie
casey
cheer
chill
civil
clues
co
comfort
commercial
con
conspiracy
counter
cruel
daisy
dates
dealer
delighted
delta
democracy
deputy
dial
digging
disappoint
disturbing
dull
dylan
easily
edward
ehome
elaine
electric
embarrassing
emotion
emotional
entered
entering
ernie
events
fascinating
fathers
financial
ford
francis
fried
gang
genetic
germans
gettin
global
granted
gray
groans
grounds
hawk
heal
holiday
homicide
hurting
illusion
inch
india
insist
iron
ivan
jackie
japan
jess
jewish
jo
julian
keith
keller
killers
kitty
landing
laying
leslie
lincoln
ln
loaded
loan
manners
marsh
martha
mill
modern
mona
mummy
murphy
mysterious
nearby
negative
nina
noon
novel
observation
ohh
option
orange
outfit
owen
owns
painful
palm
peg
phoned
photographer
pilots
pipe
popular
potential
precious
pretending
prize
profit
protected
punk
puppet
ransom
raped
receive
related
replace
respond
responding
rod
rolling
ruth
sack
sacred
safer
sec
serena
seventh
sharing
similar
siren
slave
snake
soda
sounded
spain
spanish
spill
spin
stabbed
starfleet
status
stealing
storage
strategy
struck
supper
surrender
suspects
talented
talkin
tanner
tattoo
tears
tech
temperature
tend
territory
terrorist
theft
therapy
therefore
thick
thirsty
thompson
torture
tracy
trauma
traveling
tries
tuesday
turkey
twelve
twin
twins
tyler
un
unbelievable
unlike
ups
urgent
vault
virginia
virus
wade
walker
walt
wanting
watson
wayne
wears
web
whiskey
williams
wise
wishes
witches
woo
worlds
worrying
worthy
аа
актриса
африки
аэропорт
бажаю
бажаєте
барни
барт
безумовно
бекет
береги
беспокоитесь
бляха
божа
боится
болить
бомбу
боятися
боєць
брав
братів
бросаи
будущего
білии
білі
біс
вiд
важлива
важныи
вбила
вдень
века
верну
весьма
вечеринки
взгляните
взрыв
виграв
виграти
видят
винсент
випадково
включая
власноі
власні
возвращаемся
возвращаться
воля
вреда
вскоре
встретить
всіма
выгляжу
вызов
выпьем
выхода
выясним
відвезу
відтоді
вірив
вічно
газети
гении
глубоко
глузду
годами
горах
горы
готувати
грець
губернатор
дo
дадим
дасть
дверима
двома
двумя
двісті
девіде
дедушка
деива
делаите
деньгами
департамент
детали
деталі
джентльмены
джулия
джуніоре
дивнии
дитинко
доверься
доктором
дурниці
дыши
діб
дізнається
едю
енергія
естественно
ето
жах
ждал
живеш
живо
живот
животное
забули
завершено
завод
заказ
закону
закончу
закрыть
зале
залишаися
замке
занимаешься
заперечуєте
заплатив
заплатил
запропонував
заслуживает
захочеш
захід
зашел
зверху
зветься
здатні
здивовании
злии
злотих
змінився
знаидіть
зол
зробите
зроблять
зубы
извиниться
изменился
интересное
искали
исследования
каждым
картина
картину
карту
кевин
керувати
класу
колени
колледж
коні
королевои
короче
краи
красавчик
красива
красивыи
кращі
кухню
кэрри
кілометрів
кількох
легкие
лекарства
лицу
личность
луис
любим
мeнe
мeня
маибутньому
макмерфі
маленьке
маленькои
марк
медаль
мем
менять
мета
миллер
милі
минуточку
монро
мороженое
морозиво
мясо
нагорі
надеяться
назвали
називають
наидет
намагалася
нанял
напоминает
наркотиков
наступна
наука
началось
начинаи
начнет
нашими
неба
небезпеці
неимовірна
немножко
ненавидить
ненавидиш
ненавидишь
непросто
неси
нехорошо
новость
ногами
ноль
носит
обожнюю
обоим
общаться
общего
объяснение
обычная
ограбление
одиночестве
однаково
одружитися
ожидала
оказался
оказаться
опоздал
особенного
останься
отдала
отправиться
отпуск
офіцере
охрана
очки
пабло
палец
пальцев
пальцы
парке
парочку
партнера
пастка
пациентов
пацієнт
пекло
перевагу
перевести
передать
переехал
питаю
пишаюся
плана
пляшки
поблизости
поверни
поверсі
повна
повно
поворот
повсюду
погане
поганого
погодився
подобаєшся
подоидет
подоиди
подписать
подружку
поезда
поездка
позбутися
покласти
покончить
покупать
полу
помешает
помогли
помогут
помремо
понад
попала
попали
посмотрел
постараюсь
похожи
почне
почуваєшся
працювала
прем
прибув
прииду
припиніть
причине
проверка
продовжимо
пропозиція
пропоную
проходит
прошлого
пульс
пункт
путем
пушку
підніми
підтримки
підходь
работаете
радість
разберусь
рана
расстроиство
ребекка
розлучення
розмовляв
розмовляти
роками
росіян
рсэреи
руди
рух
різних
саит
самым
сбежала
свидетелеи
свободен
святои
сделки
сенатор
сердцем
серці
сидів
сильні
синіи
системе
скажімо
сказки
скорои
скрізь
следующем
словам
служить
сними
согласно
сообщили
соромно
сосед
спали
сперва
способности
спрашивал
ставить
станции
старои
сторона
субботу
сумую
сходи
счастливы
счастье
считал
сьюзан
тo
таимс
таков
твоими
теле
теми
теодор
тереза
терпеть
территории
торін
трапиться
тримаю
тур
убивают
убити
увидит
узяти
улицу
умеет
умирают
уровне
уряду
условия
услугу
успели
устроил
участие
участке
уявлення
фамилия
фанат
фантастика
фзт
фильмов
фирмы
фокс
форми
фюсб
хен
хліба
хо
хрен
хьюго
цветы
цена
центре
церковь
цукру
черевики
чертов
членом
чудеса
чудовище
шиі
шкоди
шкодую
шторм
шучу
эли
эль
эмоции
энергию
энтони
эрик
яд
ян
яна
яч
єте
ідею
іж
імперіі
ісус
ісусе
##ades
##af
##air
##akes
##amp
##anda
##are
##ast
##atic
##atoes
##ators
##bles
##box
##ched
##chy
##cles
##cти
##cю
##dan
##dicated
##east
##elia
##eline
##ental
##ese
##eter
##eving
##fa
##fle
##gain
##gram
##gus
##hat
##hile
##iary
##icing
##ience
##ised
##iss
##iт
##keeper
##kind
##lar
##lara
##lary
##lf
##lore
##love
##mes
##mmy
##mn
##mous
##nack
##nar
##nded
##ndi
##nia
##nic
##og
##ogue
##ogy
##oks
##olk
##ope
##orate
##ored
##oring
##osing
##ots
##ouse
##ov
##own
##ox
##oy
##oжe
##phone
##piece
##pies
##ples
##ployed
##ption
##quence
##ranny
##rell
##ribute
##ried
##rnie
##rows
##rum
##rvin
##scribed
##sen
##teen
##tel
##ten
##tend
##thm
##thy
##tles
##tly
##tment
##toon
##tory
##try
##tude
##uced
##ucker
##uction
##udy
##ued
##uggle
##uits
##ules
##umn
##unes
##urb
##ust
##uz
##vation
##venient
##vent
##vis
##vised
##water
##zi
##zon
##аб
##аза
##альд
##альнои
##альным
##альність
##аля
##анеш
##аних
##анна
##анная
##анные
##анів
##аніі
##ате
##баешься
##бала
##балась
##баныи
##бати
##бачення
##бирають
##битки
##бнии
##бное
##бовали
##бот
##бралися
##брі
##бт
##бувала
##бувати
##будеться
##бує
##ваешься
##валить
##вани
##вери
##вець
##вечу
##вижения
##вилась
##виток
##вич
##вным
##водиться
##волів
##ворів
##вт
##вчив
##вят
##відка
##вільно
##гав
##гадувати
##гають
##гаються
##гр
##граи
##грами
##грозу
##гс
##датися
##дая
##дел
##дент
##дком
##дох
##дохни
##дура
##дыхает
##дься
##діння
##еження
##езли
##еит
##елем
##елись
##елл
##енд
##енку
##енни
##енно
##ернуть
##ерныи
##ерт
##еса
##есо
##естить
##еться
##еці
##ечь
##жался
##жаются
##ждается
##ждаю
##ждає
##желес
##женныи
##живаися
##живет
##жився
##жкі
##жнo
##жне
##жнее
##жних
##жность
##жную
##жуся
##жуть
##жче
##жься
##зан
##здать
##зительно
##зицію
##зму
##зную
##зоваться
##зод
##играть
##ида
##иде
##идуть
##илля
##илося
##имає
##имите
##ирует
##исон
##ита
##ительная
##ито
##иця
##ическии
##ичнии
##ишла
##ище
##кинь
##кнути
##кова
##кола
##коли
##криття
##крыта
##крытия
##ксе
##кіо
##лo
##лавы
##лакать
##ласка
##лата
##лать
##латят
##лач
##ленькие
##леньку
##лепа
##лею
##ливыи
##лили
##лими
##личными
##лке
##ловал
##лость
##лужити
##лушал
##лчать
##льник
##льную
##льство
##льт
##льці
##ляєш
##літь
##маите
##мані
##мат
##меешь
##мены
##меться
##меяться
##мився
##мирати
##мирають
##ммонд
##мная
##мці
##міну
##мієш
##нала
##нание
##нации
##нди
##нена
##ненько
##нес
##несла
##несли
##несу
##неться
##нижки
##нимаемся
##нимали
##нимают
##нин
##ничаю
##нни
##нными
##ново
##нскои
##нські
##нтер
##нтернет
##нус
##ньою
##ньше
##няк
##няюсь
##ніка
##овался
##ових
##овував
##одить
##одно
##оду
##олить
##омих
##омо
##онал
##онер
##оры
##отеки
##отник
##отники
##пан
##пец
##пило
##пимо
##писи
##писку
##плати
##платы
##плять
##повідаи
##порядок
##ппа
##прав
##правили
##правити
##пускаи
##пустим
##раем
##раз
##рак
##раму
##ратил
##рации
##ращу
##редит
##реду
##резал
##рела
##релом
##рении
##рется
##рехи
##решение
##ривати
##рида
##ритися
##риті
##ричала
##риш
##рл
##рни
##рному
##рные
##роль
##росли
##рри
##рства
##ртні
##ртом
##руби
##руг
##руд
##руется
##ружил
##рушение
##рці
##рше
##рыли
##рячии
##сала
##сах
##сии
##ске
##слать
##сло
##смотрел
##сних
##снять
##сса
##ставка
##ставки
##ставляют
##ственности
##ствует
##стии
##стная
##ступив
##ступим
##сьте
##там
##твенныи
##твом
##тельна
##тере
##тин
##тина
##тли
##тных
##тові
##трапили
##тре
##тримаю
##трои
##троить
##тром
##трона
##трі
##тта
##тти
##тяк
##увався
##уд
##уеит
##уем
##ульт
##унку
##уста
##ушка
##уючи
##фбн
##фии
##филд
##фпт
##фік
##фіі
##хал
##хать
##хнет
##ходом
##хт
##цент
##циях
##цяти
##ціино
##чался
##чание
##чез
##чекаю
##чению
##ченнои
##чивается
##чинить
##читаи
##читать
##читаю
##читися
##чни
##чною
##чщ
##чів
##шаем
##шатися
##шені
##шивает
##шня
##шою
##шту
##щаите
##щала
##щаться
##щему
##щит
##щн
##ываю
##ыграть
##ьер
##ькому
##ькою
##ьуп
##юз
##юк
##юн
##юуеи
##ющих
##юють
##явив
##явились
##явить
##являю
##явся
##ягни
##язан
##яка
##яние
##яния
##янку
##ясню
##ячи
##яються
##яємо
##ємно
##єць
##ѕє
##ірка
##іте
##ітки
##іч
##ішок
##ґв
180
250
44
58
accounts
acted
actions
activity
affairs
aha
aircraft
albert
alexander
angela
angeles
answering
archer
arranged
arrow
assistance
assumed
assuming
awfully
bacon
badly
bates
batteries
behave
behaviour
blade
blank
blows
bone
booth
bottles
branch
breach
bull
burns
cameras
cargo
carlos
cells
cemetery
charged
chattering
cherry
christine
clarence
colony
coma
complain
confess
connect
continued
costume
covering
dated
deals
december
deeper
defendant
delivery
deposit
dessert
detectives
development
downtown
dozens
drives
earn
earned
efforts
elegant
eleven
elvis
engagement
engines
envy
et
eva
exit
explode
exposed
facts
fantasy
farewell
female
fighter
fits
flattered
florida
focused
foolish
forgetting
forgiveness
fortress
foster
freaking
freezing
fries
gates
gibbs
gimme
gloria
grass
gratitude
groaning
gunshot
gus
halfway
ham
happier
heck
heir
henderson
homeless
hug
humor
hush
immediate
incident
informed
intention
issued
jeez
jenkins
junk
kara
keen
kidnapping
kills
kindness
kissing
kitt
knocking
kurt
lame
legend
lenny
lf
lips
liquor
lo
logan
loop
maintain
marshal
massive
material
measure
medium
meetings
melissa
mere
messages
method
monk
moron
motel
muscle
mи
nails
naughty
neanderthals
ned
nuclear
oak
oldest
ordering
organization
oxygen
oz
oнa
pa
parker
parts
passport
pat
patience
pen
personality
phoebe
photos
pierce
pitch
platform
pleasant
plot
poem
polite
possess
possession
pound
primary
principal
proceed
produce
profile
prosecutor
punishment
puts
quarters
radar
rage
randy
rape
recording
religious
remote
reported
reporter
response
result
resume
retire
reunion
reverend
ripped
roman
rooms
ross
rotten
rub
sammy
sandwich
scratch
scream
script
scum
seats
servant
sheldon
shield
shipment
shrink
singer
slide
smaller
smash
snap
somethin
songs
sons
soo
sore
spinning
stairs
steak
sticking
stones
stroke
suggesting
suggestion
surface
sworn
tanks
tap
terrified
testing
therapist
thrown
toilet
toward
toy
traveler
tricks
trunk
unable
underground
unfortunate
usa
vera
vip
visitors
weed
wells
wendy
wh
wherever
whispering
willie
wins
wisdom
witnessed
writer
yang
younger
автобусе
алкоголь
альберт
анджело
арестовали
ария
бак
безпечно
березі
беріть
билеты
битва
бить
болезнь
больна
бомби
борьбе
боялась
брал
бран
братан
брехун
будучи
бхфю
біжіть
вважати
ведьма
величність
верни
вернутся
вес
вибрав
виделись
вирішити
виски
високии
вкусно
власник
воде
возвращением
возражаете
воине
впав
впереди
встречался
выиду
выпил
выходи
відкриття
відпочинь
відпустити
відчини
відчув
відчуваєте
вікно
віку
вірить
вітальні
гapaзд
гaрри
гадаєте
гаи
гарною
главнои
голови
голосніше
гості
грудь
группы
групі
дамо
данныи
дашь
даян
дважды
двигаися
движение
деимон
деиствия
делами
десятки
детективы
джексон
джесс
джонс
диво
директора
диск
днями
дозволили
дозу
доказ
доказів
донован
доставили
достал
дракон
друзьям
душе
дышать
дэрил
дядьку
дівчатка
дізнатись
дізнаєшся
діри
дістатися
едлін
езжаи
експеримент
елізабет
енні
жалко
жахлива
жахливии
жест
живы
забыли
зав
загадка
загинули
задавать
заднем
задоволення
заимався
заимається
заинятися
занимался
заняты
заробити
заставили
заставит
заходите
зважаючи
зграя
землеи
змін
зміна
змінив
змінилося
змінитися
зору
зробіть
зручно
зупини
зустрілися
зірок
зіткнення
идиоты
извиняюсь
изменит
изнутри
именем
иорку
кадди
каждом
каил
камень
карла
карти
карты
катастрофа
квартири
квитки
кет
кинула
кинь
кишені
классныи
клиента
кнопку
кожа
кожну
концерт
кончится
копи
коробку
королю
котрии
коіться
краине
кріс
купер
лагерь
легенда
ледве
лена
леонарда
лесу
летом
листи
лондоне
лучшеи
люб
любимо
любитель
любые
людині
люку
ля
лягаи
ліндо
магии
маргарет
мастер
менеджер
меню
месяце
мешать
минулоі
миром
молли
молоток
мона
моргана
мріі
музеи
мілорде
міністр
навчання
надежда
надежды
наидете
наидите
наименше
намагаюсь
напугал
настоящие
научиться
начну
нашою
нби
небагато
недолго
никита
новым
новых
ногах
номером
носом
ніколас
обговорити
обеих
обережніше
одночасно
одноі
оказывается
опинився
опоздала
ордер
оставила
оставлю
оставлять
остановите
острова
отвечать
отдела
отказаться
отличным
отменить
ото
отпущу
отсутствие
охоронець
ошибаюсь
ошибкои
паркер
партнером
пастор
передати
переживаю
пережить
перезвоню
перерыв
перестать
перл
першому
першоі
плавець
плакати
планом
плечі
побачили
побудувати
поверишь
повернися
повернув
повернуться
повертатися
повесить
подбати
подвале
поделать
подобное
подозреваемого
подумаю
подходи
позабочусь
позволишь
поиграть
поимал
поклав
полгода
полицеиских
полковнику
положил
получим
получите
помни
понедельник
понеділок
понимать
пообіцяв
попередження
попередніх
попросив
послание
поставити
постель
потребує
похорон
похоронах
почекати
починаи
починаите
починати
почувствовал
почувствовала
поіде
правде
правои
працюємо
предложили
предоставить
прекраснии
пригадую
пригласила
приглашение
придумаи
приехать
признание
приидеш
приказы
принцесса
приняли
присядь
приходив
приходят
приходять
пробував
проведемо
проверю
продвигается
продовжує
продолжает
проиде
проишов
проклятие
проникнення
пропал
простить
просьба
профессор
прошлое
прятаться
пуаро
пусти
пытаися
пытаются
піди
радостью
разговаривал
раиана
реис
решт
родителям
родом
рождества
розділити
розмовляю
розповідати
розповіла
розуміти
розуміють
руху
руці
рівні
рід
різ
різдва
ріку
салат
самогубство
свободи
свободны
секса
сексуально
семи
си
сидим
силою
скотта
скучала
скучать
смотрели
снял
сняли
собралась
собрался
событии
создал
соня
сором
состоится
сотні
соус
списке
сподобалося
сподівався
справжню
спросила
средство
срок
стався
сталось
станут
статью
створення
створив
стеиси
столу
столь
стоіш
странные
стрелял
стіну
судья
сумніваюся
счастливого
считаи
съел
сью
тaм
таксі
татка
тачка
таємно
тварь
темряви
терри
тесты
тисяча
транспорт
трюк
тьl
тіні
убит
ув
увидели
углу
удастся
украсть
умныи
умоляю
уокер
управлять
успел
успокоитесь
устал
участвовать
фаил
формі
хвильку
хвилюитеся
хизер
ходишь
цілу
часы
черзі
чертова
чжон
чистого
читаю
чо
човен
чорних
чрезвычаино
чувств
чужі
чіпаи
чіпаите
шанса
шарлотта
шел
шукала
шукають
эд
эдвард
эндрю
якогось
янг
ясо
ятаите
іхали
##66
##80
##abe
##acity
##ags
##ammed
##anne
##ansas
##ao
##ars
##ately
##aм
##aн
##bate
##bbie
##bc
##bling
##boat
##bon
##bridge
##cast
##cel
##cept
##cise
##ckey
##clusion
##count
##ctions
##curred
##cutive
##cть
##dder
##dia
##dly
##duct
##eers
##ef
##eman
##ended
##ero
##ette
##evere
##eбя
##fect
##ffin
##fia
##flict
##fying
##gans
##gement
##gging
##gins
##gne
##gro
##ground
##had
##hales
##hao
##hart
##haw
##hon
##iable
##ially
##iana
##iations
##ib
##ibi
##ibs
##icia
##iction
##ien
##igar
##igration
##ike
##iko
##ilities
##illa
##imated
##imp
##inct
##iness
##ingo
##ional
##ipped
##isfaction
##ishes
##ising
##isted
##istics
##istinct
##ito
##itors
##iv
##iz
##jo
##ket
##kov
##lap
##lare
##lative
##laughter
##lds
##lication
##lick
##lings
##lips
##lling
##lm
##loves
##lton
##maker
##mann
##mas
##mination
##mire
##mmit
##motion
##nee
##nnah
##nny
##noring
##ob
##ole
##olt
##olved
##ome
##oning
##oration
##oses
##otic
##otics
##oму
##oнa
##pace
##pard
##paring
##pes
##phere
##pman
##posed
##posing
##pped
##pper
##press
##qual
##quences
##quet
##quire
##rad
##raphy
##rations
##rawl
##rbor
##reak
##ream
##reat
##reck
##reed
##rels
##rence
##rg
##rict
##rier
##rist
##rone
##rp
##rps
##rry
##rudge
##ruise
##runch
##rying
##sel
##servation
##shed
##sions
##sley
##ssy
##stant
##style
##tained
##tected
##tical
##tra
##tting
##tum
##uds
##uggling
##uin
##uish
##ulu
##unction
##unded
##under
##unning
##uno
##uries
##urned
##urray
##used
##usion
##usive
##vant
##visor
##wear
##yle
##yn
##zie
##±в
##авати
##ага
##агу
##ади
##адки
##ажи
##алы
##анию
##аре
##арі
##асти
##асть
##ато
##ачи
##аша
##бается
##бался
##бачила
##беда
##берете
##бильныи
##бирала
##бирали
##бит
##блених
##бли
##бляє
##бности
##бну
##бота
##ботился
##бра
##бся
##бують
##бываи
##бывать
##бытия
##бів
##біг
##вa
##валася
##валу
##вапся
##ватиме
##ведем
##ведіть
##везу
##вж
##вина
##винении
##вини
##вину
##вища
##вление
##водят
##вожу
##вона
##востеи
##вох
##вращения
##вта
##вувати
##відчення
##віку
##віру
##віт
##гадала
##гаем
##гаися
##гали
##гались
##гани
##гании
##гаре
##гнал
##гни
##гну
##говаривает
##говорювати
##горі
##готувати
##готуватися
##граф
##графіі
##грес
##гут
##гін
##даваться
##даемся
##даете
##двічі
##демо
##детель
##джаю
##джет
##диться
##дків
##длен
##дная
##дники
##дное
##довал
##дрыи
##дрю
##дти
##дует
##дує
##дших
##дін
##евать
##еда
##еді
##едіть
##еж
##еле
##елла
##ельная
##ента
##ерг
##ерения
##ержать
##ерне
##ернемось
##ерни
##ерні
##ерів
##ест
##ех
##ехала
##ехали
##ечения
##ечка
##жгли
##ждали
##жден
##ждь
##жению
##жер
##живаешь
##живаитесь
##жилися
##жкои
##жливе
##жності
##жня
##жую
##законно
##зати
##зація
##зва
##зволите
##звонила
##здание
##зжать
##зики
##зко
##зн
##знался
##значення
##значили
##зне
##зну
##зои
##зую
##зька
##идете
##идів
##инал
##ио
##иор
##иською
##ителеи
##ители
##ительныи
##иты
##ицю
##иэл
##каешь
##кажете
##казать
##кал
##кинули
##кликає
##кну
##крою
##крывается
##крывать
##куи
##куємо
##лe
##лавные
##ладу
##лает
##лазь
##лаин
##лакав
##лакала
##лам
##ламу
##леву
##лене
##лених
##леток
##летів
##лз
##ливою
##лику
##лила
##линныи
##лится
##личка
##лиь
##лию
##ллер
##лль
##ловать
##ловно
##логии
##логіі
##лоді
##ложения
##ложим
##лоть
##лою
##лоі
##луг
##лужби
##луи
##лучить
##лышит
##льда
##льше
##лював
##люх
##ляися
##лялась
##лялся
##лям
##ліка
##ліс
##мy
##мався
##ману
##мби
##менты
##менял
##метить
##мит
##мити
##мкнути
##мму
##мовив
##мона
##мушує
##мір
##міть
##міі
##нe
##надцять
##наю
##нгс
##нетесь
##нетт
##нз
##никам
##нимаися
##нимала
##нимать
##ницею
##ництва
##ничать
##нних
##новаться
##ностями
##нских
##нцев
##нч
##нчено
##нювати
##нюсь
##няє
##ніву
##нім
##ніс
##нішии
##ніі
##обиться
##ображение
##ован
##ованы
##овина
##овування
##овуємо
##огла
##оде
##одила
##одилась
##одная
##одни
##одні
##оді
##оем
##оение
##ожать
##озі
##окус
##оми
##онка
##онную
##орда
##оса
##очке
##очок
##оєм
##падает
##паки
##пании
##пас
##пель
##перед
##перта
##пився
##пир
##плата
##платишь
##плату
##пление
##пн
##пне
##повнити
##повіси
##полнить
##полнять
##пору
##ппу
##просили
##пс
##пче
##пые
##пэме
##пізнився
##піимали
##піимати
##піння
##піти
##пію
##равилась
##рався
##ражение
##раження
##раис
##ранение
##ратился
##ращих
##рдо
##рег
##реде
##решения
##рився
##рился
##рировать
##рито
##рла
##рли
##рман
##рми
##рнои
##рнути
##рных
##роба
##робки
##роблено
##ровании
##рования
##росишь
##рскои
##рте
##рто
##рування
##руги
##ружки
##рук
##рург
##рути
##ручно
##рцем
##ршим
##ряду
##ряжение
##рял
##рілки
##рінь
##сав
##саи
##силає
##слуги
##служив
##слідування
##смен
##сник
##сных
##соби
##сои
##сора
##сотка
##ссе
##ссия
##ссу
##ставив
##ставила
##ставишь
##ставьте
##станемся
##стаются
##ственная
##ствую
##стик
##стку
##стои
##стоке
##стрые
##ступать
##стыми
##стях
##сунуть
##сутність
##сця
##сьє
##сягу
##сять
##таб
##тався
##тает
##тается
##тащила
##твенного
##твеннои
##твенную
##твердить
##твия
##твовал
##телеи
##тельные
##теть
##тити
##тл
##тное
##тоне
##тр
##трати
##трачати
##тскии
##тство
##ттю
##тч
##тяг
##тягну
##тям
##тянул
##тянуть
##тіла
##тіти
##тія
##уе
##уися
##умали
##упи
##учать
##фор
##фуи
##фя
##хни
##ходишь
##ходятся
##цати
##цах
##цес
##ционныи
##цьку
##цюи
##чально
##чатков
##чаться
##чаянно
##чивает
##чивыи
##чилися
##чими
##чин
##чистки
##читати
##чителем
##чиш
##чків
##чними
##чню
##чуєте
##чю
##шають
##шены
##шишь
##шком
##шлись
##шники
##шню
##шуи
##шує
##щаешься
##щался
##щами
##щах
##щенныи
##щиися
##щиком
##ыскать
##ьеру
##ьном
##ьо
##ьці
##эри
##ювали
##юка
##ючу
##яви
##явления
##язался
##язать
##ялась
##ялися
##янеи
##яри
##ятно
##ящая
##ящее
##єднатися
##єра
##єтьcя
##єі
##ѕж
##іб
##ібні
##іде
##ільна
##ільні
##ірвати
##іримо
##ірші
##іса
##існі
##іст
##іцяи
##іці
##ічні
##ішки
##ј
03
39
41
42
5000
52
77
82
accent
accused
adding
administration
afghanistan
album
amber
ambition
analysis
answered
anxious
apologies
apples
armor
assassin
assemble
assignment
atlantic
attached
auto
avery
backs
bail
bart
basic
basis
basket
battery
bears
behalf
berlin
bicycle
bleed
blocks
bravo
breaks
breast
brief
brien
brody
budget
bug
bush
buster
butterfly
cable
cafe
cameron
candle
cave
celebration
ceremony
chang
cheek
chef
chemical
chffffff
chop
christopher
cigarette
circles
civilian
clarke
closely
closest
clown
colleague
collect
collins
colors
comedy
comic
commission
commitment
communication
compare
confidence
confront
connor
conscience
contacts
contain
controlled
cookies
corn
countess
cowboy
crashing
creatures
crews
current
customers
cuts
cutting
dale
dammit
deaf
deer
defeat
defence
degree
del
dexter
dime
distress
dive
dose
drank
driven
effect
effects
elijah
elsewhere
employees
engage
environment
escort
excellency
excuses
existence
experiencing
factory
fairly
fi
figures
finch
finest
fires
flower
forbid
francisco
fund
galaxy
gambling
garcia
generation
goal
goodnight
gotcha
graduate
grocery
guessing
hail
halt
handed
harmless
heavily
heights
helpful
hid
highest
hitler
holt
homes
houses
hr
il
impact
inches
increase
influence
inn
inner
insisted
instructed
internet
interviewed
invented
invitation
iris
jeffrey
jersey
jet
jewelry
joel
joining
jonas
jose
joy
kicking
knights
lance
latest
leap
legacy
liberty
lighting
limited
lobby
locations
locker
lousy
loyal
luxury
lynette
mac
macgyver
machines
manner
manuel
margaret
marina
martial
mason
math
matthew
mature
medal
megan
memorial
mice
mickey
mines
minus
mobile
mode
monica
moral
morgue
mortal
mothers
mud
nailed
nancy
newspaper
nicely
nicer
nicky
noah
noble
notes
obey
obsessed
occasion
ongoing
opera
options
orleans
pace
packed
paintings
paranoid
patch
peanut
pearl
peggy
penis
perimeter
permanent
petty
picard
picnic
pipes
plastic
players
poetry
poisoned
pole
polish
population
porter
potter
practical
praise
praying
pre
presents
prevent
prints
prior
procedure
proves
pump
questioned
quietly
rabbit
rank
rarely
reference
relief
residence
resources
returns
reveal
reverse
rita
rocket
rolled
romance
romeo
rot
russia
salad
sales
salesman
sample
sarge
satellite
satisfied
scientist
scientists
scotland
sebastian
seize
shadows
shared
shed
shelter
shine
shooter
sis
skill
skip
skipped
sloane
smiling
smooth
sobbing
socks
soil
sophie
speeding
sperm
spoil
spots
spray
stations
stevie
strangely
stretch
stuart
studied
succeeded
suitcase
suits
superior
symptoms
ta
teachers
temple
tessa
testify
theme
threaten
tits
torn
tradition
tragic
trains
travis
typical
tο
unconscious
upper
vagina
valley
valuable
wicked
wipe
yοu
zombie
агента
адвокатом
адреса
актор
алек
аманда
америку
англии
андре
арчер
атаки
багатьох
бажав
бажаєш
банда
барбара
баре
бассеин
безопасность
беи
беисбол
белая
бесплатно
благослови
близки
божевільні
большее
болю
боялася
брехати
бюро
біжить
біле
вce
важливии
важче
ваиолет
валентина
вариантов
вели
великому
великоі
вельми
венді
верила
вернула
вечеринке
вечірки
взамен
вздумаи
вибрати
видом
вижив
виидеш
викликати
викрав
винить
винятком
виродок
вирок
вирішення
вирішено
високо
витрати
витягти
вихідні
виіхати
вкрав
вкрали
владелец
влади
власного
вліво
вогню
водить
военныи
возвращение
волнуюсь
вошел
впечатляет
впізнав
враг
вражаюче
вред
врет
врешь
встав
втратила
вулицю
входит
входить
вчасно
вчинок
выглядел
вызвал
вылезаи
вылечить
выпила
выстрел
выходных
відомии
відпочити
відчувати
вільнии
вільно
віці
гадала
гарві
ген
герб
глазам
глазами
гленн
глубине
глянути
говард
голоден
голодна
голоду
гольф
гомер
горячая
готелю
грав
градусів
грузовик
гріхи
дaвaи
давос
дадите
дама
дані
даремно
детские
детям
джерело
джозеф
джонни
джорже
джули
джун
дзвонить
дзвінок
дивовижно
дихати
днях
добрые
добряче
доверие
довольны
договор
дозвониться
доказательств
докази
допоки
допомагає
допустим
доступа
думок
дурні
дэна
дякувати
дізналася
ева
елизавета
ерік
жаловаться
жартую
женат
женщинами
женщине
жертви
жертвои
живемо
живи
живцем
живі
живіт
загалом
загрожує
заднице
заждіть
заживо
заиматися
заиме
заключить
закрои
закінчила
залишатися
залишила
залишилася
залишимо
заманеться
заменить
заметила
заметили
замечательныи
замешан
занимаюсь
заплатили
запросити
заслуживаешь
заснути
застрелили
застряг
зате
захотите
зберегти
збіг
звонили
звоните
згадав
згодом
здании
здатен
здатнии
зима
зламав
злиться
злои
змозі
змусити
знаиомии
значения
значок
зникне
знищення
зовні
зону
зупиніться
зіграти
изменила
интересует
исключить
использует
используют
исчезла
каждому
каждые
калифорнии
кандидат
капелюх
карле
кеидж
келли
класна
классе
класі
клеитон
клиентов
км
кодексу
колледже
командир
компанія
кон
копом
користь
корова
королевы
красавица
красивые
кращого
крилі
крис
круг
крутои
крыса
купили
курка
кухні
легких
легкое
леин
летать
лизель
линию
личное
лодка
лорда
лори
лу
людях
мавпа
магазине
маилз
маленькими
малого
марко
мартін
марш
маріо
матусі
матч
маячня
медленно
мексику
меняет
мередит
мережі
мерфи
метро
миб
милои
милість
минимум
министр
минулому
мнe
мозги
моими
мосс
міст
нaм
набридло
навчитися
нагадує
назвать
назвою
називали
называи
наибільшии
наикращим
наказав
наоборот
наодинці
напал
напарник
написал
написали
наркотиків
наслідки
натворил
натомість
начальнику
начхати
нашему
небеса
небесах
небольшая
небі
невеста
недостатньо
незабаром
некоторым
необходимости
несет
нетерпением
нечестно
нил
норвегіі
норрі
носила
німці
нічим
облажался
обмен
общества
объект
обіими
овва
огромное
одинадцять
одних
одновременно
однією
одружені
ожидании
ока
окончена
операцію
организовать
основному
особливии
остальными
остаток
осторожнее
отак
отказалась
открыл
относительно
отправлю
отримає
отрицать
отследить
отця
отчет
официально
офіцер
охрану
очереднои
ощущение
пo
павле
пак
пальців
парк
пастці
певна
певні
педик
пеклі
перевірю
передачу
переехать
перемогти
перестаньте
пив
планете
плани
побачимось
поблагодарить
поближе
поведение
повторювати
повторять
повірив
повія
погиб
погляд
погляду
погодите
подать
подготовиться
подзвони
подзвонив
подивимось
подними
подняться
подожду
подоити
подумаите
подібного
поездку
пожар
позиции
поиму
показали
показании
показаться
поклади
половиною
положение
положи
полчаса
поліцеиськии
поменьше
помогаешь
поможем
помреш
помітили
поп
попередити
поработать
посеред
последствия
посреди
поставил
постриваи
поступила
потенциал
потеря
потрапила
поцілунок
починає
почуттів
пояс
поідеш
правительство
працювали
предал
предположить
представляла
прибери
прибули
приведу
привели
приводу
придумаю
принца
принцеса
принято
пристрасть
приіхати
пробачити
провина
продал
проживання
проиграл
прокинувся
проповідник
проснулся
проста
простір
прошлым
птахи
пуля
путешествие
пытаемся
підлогу
підіиде
рабочих
радж
разных
расследования
расстроен
рахунку
реакция
реальности
резюме
репортер
робитиме
робитиму
роботою
робін
ровно
роджер
рожеві
роз
розмовляла
ролі
рубашку
рукою
ручку
річки
саксон
самоті
свидетеля
свята
севера
сексу
села
село
сенсі
сестренка
сестро
сигарети
сидишь
сильное
сильным
синдром
системи
скористатися
скорости
скорую
скотч
скрывать
следи
следов
сложнее
слухає
слышно
смертью
смотрела
собственнои
совета
согласился
создали
соки
солдатом
соло
спасать
спасла
спектакль
спиною
списка
способность
спрацювало
спрашиваю
спросили
спрятаться
средства
станем
станете
старая
старых
стають
створили
створює
стилі
стоял
страна
странныи
страсть
страшенно
стул
судьба
суді
сумки
сумніви
суму
сутки
сучка
схопити
считала
сыновеи
сыр
табір
танці
тв
творишь
теилор
темні
терапии
терять
толку
томасе
тоні
торт
тост
трапляється
тримаитеся
трогать
тупо
турбуися
тэд
тім
тітка
убивает
убиицеи
убьешь
убьют
увечері
увидеться
угоду
угол
ударила
удача
удовольствие
уезжаю
ужасное
узнаем
уиди
уилсон
украла
уникнути
уоррен
управління
успеть
успіх
уся
уфз
уфзн
уфпн
уходят
фз
фредди
френку
футбол
фільму
характер
хвилі
хвороба
хлопчика
ходім
хожу
храм
хранилище
хранить
христос
цікава
частини
чекали
чемодан
чикаго
чиста
чистая
чистии
члена
члены
човні
чон
чорта
чудове
чуток
шановнии
шанси
шию
шльондра
штучки
элеин
элизабет
эмбер
ються
язик
яице
янек
єкт
єру
іздив
ізі
іхню
іхня
♪♪♪
##!
##"
###
##$
##%
##'
##(
##)
##*
##+
##,
##-
##.
##/
##:
##;
##=
##?
##@
##[
##\
##]
##^
##_
##`
##q
##{
##}
##~
##¡
##£
##¤
##¦
##§
##©
##¬
##®
##°
##±
##¶
##·
##¿
##ð
##ø
##þ
##ı
##ƒ
##α
##ζ
##η
##ι
##μ
##ν
##τ
##υ
##ω
##ъ
##ѕ
##ћ
##џ
##ѻ
##‐
##–
##—
##‰
##∆
##√
##≈
##─
##╨
##╪
##♪
##♫
##抣
##醲
